1111101000110000111110101111101111111001111100111111101011001110111110101100000011111010100010101111011111101101111100111100110011110000011110001111000011101001111101000101101011111000101101001111110111110000111111101110101011111000111011101111100011011101
1111000010110100111100011000100011100000000000011111001011011101111101000001111111110011101000111111010000100010111101011010001011110101010110001111011101011000111110000110001011111010011011101111101100010000111110100011111011110111010111011111100001010001
1111101100101010111110111001101011111100101011001111110110110110000000000111111100000100101001100000100000000100000001101110111100001100000100010000110010101110000011000000001100001001000010100000010101110100111111110010000011110110100001001111010001001011
1111101011110111111110110111110011111011011110011111110000110110111111010111110111111110100010100000000011110111000001100111101100001010001001010000101110101010000001110010111000000110100011010000011101101110000001010100101111110100110001101110000000000001
1111101010010000111110110100110111111011001010111111110001100000000000011010010100000100100111100000100111011101000010110110101000001011110011010000101000101001000010010101111100000100011100111111101110001010111110010011010011111100001000000000001100111000
1111101101110001111110111010100011111100100001111111101111001111111110110100101111111011010001001111101011101010111110110001111111111101010110101111111011100100000000000000100111111111001010001111100011010000111111000111110111111110011100110000001100001110
1111101101101111111110111010111011111100100011111111101111100001111111000110101111111100000100111111101010011100111111000100110111111111011000110000010000011001000001010000101100000001001000111111101100011001111110111011010011111100110001100000000011100010
1111101100001001111110110110000011111100100000101111110100000011111111110010110011111111101101111111111111011101000000011111111000000010001111000000000010000101111111100000001111110110111010101111001001101110111100001100001111110100000000011111010111111101
1111101101000110111110111000010111111011111100101111110000011100111111001111110111111101111110111111110100010100000000001011010000000001001110111111111110000111111111110111111011111111100011011111111011011001000000100001101000000000000011110000001011101000
1111101101010110111110111010011111111100001111111111101111010101111110111101000011111010001011101111011111101100111100101011001011100000000000011110000000000001111000000000000100000011000111000001111111111111000111111111111100011111111111110000010011111011
1111101101110001111110111010111011111100100011111111101111010111111111000001010111111100000101001111101110011100111110111011001111111100111010011111110100010110111111010111010111111110000110001111110100010101111111101100110100000001001110110000000111001000
1111101101001000111110111010111011111100100010001111101111100101111111000010011011111011111010101111101101011111111111010000011011111010000000011111101110010110111111101111011000000011100111000000010010101100000001000101011111111111110110111111110111100101
1111101101110001111110111010111011111100100100001111101111010111111111000001010111111100000101011111101110101011111110111001010111111011110011101111110001000010111111001010101111111011111111011111110110000100111111111001001011111111101111110000000001010000
1111101101100111111110110111101011111100001000011111101111010110111110111011101111111011101110001111100111010000111110001001111011110111010010001111001110100100111100000111100111100000000000011101000000000001110100000000000111111001011011100001111111111111
1111101100100001111110110000111111111100010101001111110010101011111111001000110111111100001100001111101011000111111110001100010111110111010100001111100101010110111101010101111011110111001101001111100100011110111101110100000111110111111010011111010101110000
1111101100011110111110110111100011111011000101111111101110101001111110110010001011111011110111101111100111101001111110100011101111111001011011111111011101100110111101101011100111110110111101111111001011010111111000000000000111100000000000011110000000000001
1111101010100110111111101011111100000100010011010000100100001111000010100011111100001011001001000000011111011101000000001110010111111100001101101111100111100111111110101101011111111001110100011111101000010100111110110001100111111010101100011111101100011011
1111100010111010111101011000101111110101011110011111010110001011111101111011011011111001101101011111100000110101111101011011011011110011000010111111000100101100111100000001101111100000000000011110000000000001111000000000000111100000000000011111000011010011
1110000000000001111000000000000111110001111100001111010010011000111110001011111011111001111001111111101001000011111110100100001111111100000000011111101100101011111110111111100111111011100011001111101101000001111111000000101111111011101110101111101110111010
1110000000000001111101010011101111111000110110011111101000101100111110101101011111111011000110111111110001011010111110110000011011111011101000011111101011011101111110111100111011111011011011111111101011111110111111000000100111111011101110001111101111101000
0000100100101000000010010100000000001010101001100000100000010011000001110010111100001001110100100000011000011000111111111100011011111100101110101111101000010011111110101011101011111010110001101111101001001001111110100110101011111010111100111111101100010011
0000001100100100000000010100010111111111111000010000000000010001111111101110010011111101111001101111110110011110111111000011000011111100011001101111101110100001111111000011110111111011100000101111110000100111111111001000011111111100011001111111101111101100
1111111011101101111111001101000011111101011110001111110100100100111111010000010111111011011101111111110001011111111110111011100011111100010010011111101110000010111111000101010011111011110001001111110000101001111111001000111111111100011101111111101111011111
1111100001010010000000010101000100000101100000000000011100000101000000101011100111111011101110001111110000100010111111000011111011111100000011001111101101101011111111000010010011111011100101011111101111001101111111000000100011111100011100001111101110100111
0000010100010110000000000001101011111111011111011111111101001000111111100001010111111100000111001111110011110000111111000111010111111100001100111111101100110101111110111100010111111011100000101111101111001010111110111100111011111100001110101111101101111010
1110000000000001111000000000000111110001000011001111101001111111000000101011000000000100000001100000001011111011000000000110000011111100101001111111101101100110111111000101001011111011100001111111110000010101111111000100000111111100011001001111101111011001
1111111111011011111111101000000011111110000010101111110010011011111111001010011111111011011110111111110000101001111110111011000111111100001111101111101110000010111111000101010111111011110101111111110000101001111111001001000011111100100100001111101111101100
1111111010100010111111100001100011111100110101111111110100101010111111000101111011111011010001001111110010101101111111000011111111111100010100101111101101111100111111000110000111111011110101101111101111100111111111001000111011111100100011111111101111101011
1111111100010110111111011100011011111110000100101111110010010101111111000111011011111011011110011111110000101001111110111001101011111100001111101111101101110001111111000101001011111011110101101111110000101001111111001001000011111100100100001111101111101010
0001111111111111000111111111111100001100000011011111101100010111111101001101100111110101100110001111100111101010111110110101000011111100000001111111101110010110111111000001001011111011101100011111101111010001111111000100101011111100011101111111101111001100
1111011110011111111101111011000011110110001111011111100101000000111110101000101111111000111010001111101001110000111110101000101111111011111101001111101100011000111110110001010011111010111111111111101101110001111110111000001111111011111111011111101110001000
0000001001000000000111111111111100011111111111110001111111111111000111111111111100001011100100100000010110000011000000001001111111111100010100001111101010010011111110110110111011111011011110011111101011111111111110101010011011111011100011101111101100011111
1111100111111000111110011011000011110111110110111111011110100001111101100110000011111000000000111111110010111101000000100001001000000011100010000000001111010110000000000000011011111111010000010000000001110000000001000110000100001100001110010000110000100111
1111001111100111111101000111111011110101000011001111001010110001111100001000010011110000011010001111000010101111111000000000000111100000000000011110000000000001111000000000000111100000000000011110000000000001111000000000000111110000101000001111001000110000
1111101110010000111111000111011111111100101111000000001100000110000001100001011100000110010101000000011110110111000001011010001011111111100101011111100011011010111110001000000011110110100111111111100011000111111110110010100011111100000101011111101000000110
1111110001110010000000011100001000000101110111000000101011001100000010111011000100001110001001000000101100110000000001101110100100001011110000010000111000000110111111000000111111110000111011001111100000100100111110011011011111111010001001101111101100100000
1111110011000011000000101011001100000101111111100000110011000110000011111100101100001110111111100000101010010110000000000001010011110100001111111111001101000110111110001000010111111101000001000000000111110010111111110011000111111100100101001111110110111010
1111101101101101111110111101010111111010111101001111101110111000111110111011010011111100010101001111111000100010111110111011011011111010000001111111101101000010111111101110011100000010100010010000001000101011111111110110001011111110100010111111111000110010
1111101110010010111110111110000011111011001001011111110110110010111111110011011100000010000111100000000100001001111111110000010011111101110101111111111011010010000000100011001000000001001001010000000010011001111111010010110111111101101000001111110011000011
1111101100001101111110111110001011111100110011011111111000001101000000010111001000000000001000111111111010101011111101111011001011110010111010101111000010001110111100110001011011110111111000011111110010010101000001000100100100000111110110100000011011010101
1111110010010001111111010000010011111100100100111111110011101001111111101000010100000001110010000000001010000100000001001011111000000011101011100000001000111110000001100000100000000111010110110000010000011000111111101101001111111011100100111111110010001111
1111101101011000111110101011000011110111100111101111010110011100111000000000000111100000000000011111101101100100000011100101110100011111111111110001111111111111000111111111111100000011001101001111000110011001111000000000000111110100100111101111100000100011
1111101101110001111110111110101111111011010010001111110000011101111110111011010111111100000000011111101110111111111111000001111011111100101010111111110001111111111111000111111111111101000000101111110010011101111110111100101011111100101100111111110001011100
1111101101101000111110111100100111111011000110101111101111100001111110101011110011111101011011101111111110110000000000100101101100000010101001010000000100100100111111100100011011111011010001001111110110110101111110110100110011111101000101011111110000111100
1111101101110001111110111111000011111011011011111111110000111100111110111001001011111011110110001111110000110011111111001000010011111101001111011111110000100111111111001011000011111100000001011111110010101101111110111111000011111100101010101111110001010000
1111101101000011111110101110000011111010100011111111101000000101111110010110111111110111011001101111010100101010111100010011110011100000000000011110000000000001000000110011011100011111111111110001111111111111000111111111111100000111001100111111101101110101
1111101010000001111110100001001011111001100000011111011110111111111101100011001011110101000010001111011011100111111101001111101011110011011101011111001111000111111101001011100111110101101011001111011100100100111110000110111111111010000110101111101010100110
1111101101110010111110100010111111111010101100001111101001001111111110101011111011111010101111001111101100011010111111001001000111111001110111011111010111101011111100101101110111110111110110100000100101000100000111111111111100011111111111110001111111111111
0000110011001011000010011010111000000010110100101111111001010110111110111000111011111011010011101111100110110010111110101001001011111010011000101111101000010010111110101010011011111010101000011111101010100001111110100010001111111001010001111111101010001100
1111011010111100111101110000000111110110001101011111001100111010111100001101110111110000010101001111000011010000111100000010011111110000000100001111000000011110111000000000000111100000000000011111000101111011111100100000100011110110111011101111010000101000
1111101100000111111110011101101111111011111001001111101110000000111110110111010111111011011001111111101010101011111110111011001011111011010001001111110000010001111110110101110011111011110000001111101110011000111110110110101011111001001100101111101000100100
1111101011011000111110111000111011111100101001001111101111011011111110110111010011111011011001111111101101011111111110111100110011111011001001001111101101100010111110110010010111111011011100001111110001001100000000000100001000000111010100110000100011110110
0000000011011010000000001100111100000001100101001111110011101011111110110011110111111010011110011111100111000110111110101010010111111010100011111111101001110110111110100101101011111010011011111111101011101111111111100001111000000010011110010000011001100000
1111110111010000111111000111111111111100100111001111101111101110111111000000000111111011111101111111101110100001111111000010100111111011101110111111110001100010111110111011000111111100000000001111110000000000111110111100110111111011000110001111101100010110
1111110001110111111110111111000011111100101011111111101111101101111110111101101111111100000100111111101110101101111111000010100111111011111011001111110001100111111110111101011111111100000000001111110000000001111111000000101111111011011001101111110000100110
0000000101101111111111100100100111111101011111111111110001111100111110111011010111111011100011001111101100001110111110111101000011111011110010011111101111000001111110111000000011111011111110101111101111010100111110111111010011111011001001101111101111100010
1111101101110101111110110000001111111100101101101111110000100100111110111101110011111011111000001111101110010011111111000000100011111011101101101111110001100010111110110110010111111011101100001111101110110111111111000001111011111011011011001111101110000000
0000000001011001000000011101111000000000110111101111111001010000111111000111000011111011101111011111101110100101111111000010100011111011101010101111101111111000111110111010100111111100000000001111101111011001111110111110100011111001101011111111011011100111
1111110000101001111110111101011111111100101001001111101111101100111111000000000011111100000100011111101110101110111111000010100111111011111011001111110001100111111110111101100011111100000000001111110000000000111111000001010011111011010001001111101100001010
1111101101111110111110111110000011111100110011001111110000110110111110111111000111111100000111001111101110111000111111000010011111111011111010111111110001100111111110111101011111111100000000001111101111111011111110111111111111111010111010111111101100001110
1111110000101001111110111101011111111100101001001111101111101100111111000000000011111100000101001111101110101110111111000010100111111011111011001111110001100111111110111101100011111100000000001111110000000000111111000010000111111011011011011111101100001101
1111101001110011111110101110001111111011111011101111101111110100111110111111110111111011111111101111101110101101111110111110000011111011111000011111110001011010111110111101011111111011111110111111110000000001111110111110100011111010110000111111101001010011
1111100110001000111110011110101111111011010001111111101100110111111110110101111111111011010100111111101100110011111110110010110111111011011100111111101110001100111110110001001111111011011100111111101110100100111110110000000111111001111100011111100100111101
0000111101110010000001111111011000000011001011111111110111111010111110111011101011111011010011011111101011010011111110101100110011111011000001101111101111001101111110110001111111111011101100111111101001111010111110110001110111111010011111001111101010110101
1111101011001110111111111000010000000100110111110000011100101010000010000100001000000110001001100000010011100110000001001101011000000100011010100000011111001000000011000010110100001011010000110000011111011110000000011001010011111100100111001111101000101101
1111001011011000111000000000000111100000000000011110000000000001111000000000000111100000000000011110000000000001111000000000000111100000000000011111000010010011111100010010100111110100101110101111001111001110111101000010010111110000010011111111000011111100
1111110010101011111111110100111100000001000110110000000100100111111111011010100111111100110101111111110100100011111111000100011011111110111101001111111011000001111111000011000011111001011111101111101011100001111110110101101011111010101101001111101100001100
0000101010001000000010101100011000001010011110010000101011011011000010100110111000001001111111001111111010000010111110000000001111111000011101111111101000000111111110101000100011111010101010001111101110101110111110110001110111111011100000111111101011010001
0000101000110101000010011011110000000100100001001111110100101111111101011111100111110011110000011111001110110001111101110010101011110111110000011111101001010001111110101111101111111011011100101111111011011000111111100101001111111010111001001111101011100110
1111101100010000111111000000000111111101001011111111101101110101111110101110000111111110000101100000000101011011000000110010000000000010000100111111111001010111111111011000100011111101001001001111110011011010111110111101101011111011011011001111101100110010
1111111000001010000000001111000100000000110000101111110101011101111111101001010111111111100101110000001010000100000000010100101111111110101000011111110011101011111111001000001011111100000001011111110010001101111110111111101111111011110000111111101100110100
1111110110111101111111011111000111111111000111101111100100010110111101100100011111110110101001011111100010101000111111100110000100000100001111100000100010010000000001100111101000000100011010110000000000010110111111011010011111111011110111101111101101000000
1111101111010110111111101110011100000001001000000000001011001011000000001001010000000001101011000000000111100101000000011010111011111111011000011111110010011001111110111001001011111010111101101111101100100101111110110101111011111011010101011111101100110101
1111010000001100111110010110101000001000110001010001111111111111000111111111111100011111111111110000110110101100111111111001011111110011101101101111001010000101111101101100100011111011000011001111111100001000111111110101111011111100111001001111101110000100
1111101101011011111111001000101111111100001100111111101111110100111111000101110111111100100010011111110001010011111111001001111011111100000000101111101111111101111111000100100111111011111010111111110001111010111110111110101111111011110000111111101100110011
1111101110010001111111001000101011111110101101100000000011001100000000000000101011111111111111001111110100111000111111010011100111111111001000111111110011001100111111011001001111111100010101111111101111011101111110111101111011111011111010101111101101010110
1111101101011100111111001000111111111100011101111111110001111101111111001101111111111101000000001111110001100101111111000100100111111011101111001111101111101011111111000010100111111011111011001111110001110011111110111110110011111011110000111111101100110011
1111100110100010111110100100010011110111110111011111011001011010111100110100110011111011000011100000101100010100000111111111111100001111010001000000110100000011000001100010000011111111100110011111101110011010111110111111000111111011111110101111101100111011
1111100101010111111110110000100011111010111111101111100111111101111110011011101111111010110011011111101001010000111110101000000111111001011110001111101011001111111110011011001111111001101010111111101010000101111110110010010111111010110100101111101011011111
1111100111110101111110111001111111111010111101001111101110000000111101111101010011110111100111011111011001100010111111000100110100000111010010100000111011100010000011111100011000001010110000100000011100111100000000011011010011111101011010101111101101101100
1111100110110111111110101101000111111010110000111111101011011110111110100011011011111010000110001111100110010010111110100100111011111010001101111111101001100010111110100101101111111010111010011111101110010101111111101010101000000001001111000000001101111111
1111000010000000111100001100000011110000101000111110000000000001111100001101101011100000000000011111000000100110111100010000000011110000010001001110000000000001111100000100011011110010011110101111001101111101111100100111000111110011000000101111010000010101
1111101111010101111110111010110011111011101111101111101101111101111110110000100011111100010001001111110001000011111110111111111111111011001100001111101110101111111110111010011111111011011110011111110000000100111111000011010011111100101011101111110001000010
1111101011110110111110110111111011111011100011111111101111110100111110101111100111111011101110111111101011100101111110111000011111111011011110101111110000101000111111010010110011111110010001111111111001011111000000011001000100000010100100100000001110001110
1111101100110001111110100111101011111010110000111111101011111111111110100100000011111001100000101111101001010110111110101101101111111010101111011111101001000100111110101011111011111101010010111111110101110011111111011101011111111110011100101111111000100010
1111101111001111111110111010111111111100001001111111110001010010111110111101110111111100011101101111101111010100111110111110010111111011101001101111110000100110111110111101100011111011100111001111101110101011111110111010110011111011110011101111101100101111
1111101111011000111110111010111111111100001000101111110000110000111111000000000011111100011110101111110001010001111111000011111011111011101011111111110000101001111111000000000011111011111010101111101110101000111111000001110111111100100011011111110001110011
1111101111010100111110110111011111111011110011111111101111001100111110111110101011111100010010011111110001001010111111000010000011111011100111101111101111110101111110111110100011111011100101011111101110011011111110111000010111111100010110111111110000111001
1111101110111010111110110110111111111011101110111111110000011101111110111011000111111011110101001111110000011001111111000001001111111011011000011111110000001101111111000000000011111011101100101111101100111101111110101110011111111100000000111111101111001000
1111101111011001111110111000100111111100000110011111110000111110111110111111001111111100000010011111110000101001111111000010111111111011100100001111110000101000111110111011010011111011110100001111101111110000111111011111010100000010110100100000010010000111
1111101111010111111110111010111111111100001010001111110001010010111111000000000011111100011100111111110001010010111111000011111011111011101011111111110000101001111111000000000011111011111011001111101110101001111111000001010111111100000000001111101110000101
1111101111010111111110111010111111111100001000001111110001001101111111000000000011111100011011111111110001000000111111000011101111111011101011101111110000101001111111000000000011111011110110001111101110101100111110111101111011111100000010001111101110011000
1111101111011000111110111010111111111100001001011111110001010010111111000000000011111100011110111111110001010010111111000011111011111011101011101111110000101001111111000000000011111011111011001111101110101110111111000001010111111100000000001111101110000101
1111101111001111111110110111110111111100001001001111110000110010111110111110101011111100001101001111110001000001111111000011001111111011101011101111110000100010111111000000011011111011110011111111101110011111111110111110111011111011101001101111101100000101
1111101110010100111110110111011011111011011010111111101101010010111110110100001011111011110000011111101110111000111110110111100011111010111001001111101101011001111110111111001011111011010100101111101101101100111110110001010011111011001101001111100111110011
1111101101010001111110101110010011111011101100111111101101100010111110111001011111111010111111011111101100101011111110110110111111111011010011111111101100111010111110110011111011111011001010101111101100111000111110101101101011111011001100011111101001110011
0000010001101001000001001011111100000101100010100000010111110110000001010110101100000100011100000000000100011100111111010100001111111011110100111111101101010010111110101010000111111010011101011111101100011011111110100000111111111010000110011111101000000110
1111000100011000111100010001111111110010011100011111000110101110111100111001110111110100101110001111010111010001111100101000010111110000111011001111000011100011111000000000000111110000000111001110000000000001111100010001101011100000000000011111000010011011
1111110011000110111111010000101011111100111100011111110011011000111111001011100111111011011100001111101100011010111110111110000011111011010100001111101100110111111110110110001011111011110001001111110000100011111110110000011111111011110010011111101011011011
0000001001010110111111110011011011111100101001111111101011111111111110100100011011111010100110111111101100000001111110110011011111111011101011111111101101010111111110110010110011111011011101001111101110010110111110101011100011111010111010011111101101101011
1111101001010000111110010100100111111001111011011111101001100110111111001111101011111101010110001111110101010010111111000111011011111011001111111111101000001100111110100001011011111001100110001111101011111011111110100111010111111010001000001111101000000111
1111101111000100111111000011011011111100000101011111110001110111111111010010101011111011100011111111101111011100111110111010100011111100001010001111101111010110111111000001010111111011110101111111110001000101111110110011111011111011110100001111101101110001
1111110001101111111111010011100111111100100111101111110100001001111111001000111111111011001110111111101110000010111110111110101011111100001010011111101111010111111111000001010111111011110101111111110001011110111110110101110111111011110101111111101101110001
1111101110110110111111010101111111111100111000010000000001011100000000001011100000000000011110011111111001100100111111000110001011111100000101011111101101111000111110111011101111111011101001001111110000010110111110110011011111111011101010111111101101101111
1111101110100010111111000011111011111011111100111111101110100100111110111100101011111010111111011111101101000000111110110011000111111011101111011111101101011000111110110101001111111011100010011111101111011110111110101111111011111011100001001111101100100011
0000010100010010000000111111101000000010000110101111110011010110111110011100111111111001111100111111101100011010111111000000011111111100110110001111110000110101111111000101000111111011100011111111101110110100111110110000111111111011100100011111101101110000
1111110001100110111111000101001011111100010100101111110011001010111111000101001011111011010010001111101110011010111110111110101111111100001010011111101111010111111111000001010111111011110101111111110001100101111110110101110111111011110101111111101101110001
1111110001101110111111000011011111111100000010001111110001011111111111000101110111111011010000101111101110111100111110111100011011111100001010001111101111010000111111000001001111111011110101111111110000110111111110110101110011111011110101001111101101110001
1111110001100111111111000101000111111100010100101111110011001101111111000101001011111011010010001111101110011010111110111110110011111100001010001111101111011000111111000001010111111011110101111111110001100110111110110101110111111011110101111111101101110001
1111101111110101000000011001011000000110001000010000011110011000000001100100000100000100000011101111111101100101111111010000000011111011111110111111101111010101111111000001001011111011101000111111110000001101111110110101101111111011110100001111101101110001
1111101100011101111110110001001111111011011001001111101101000011111110110000011011111001111010001111101100100000111110101111111111111011000001111111101101010100111110110011101111111011001110101111101111001001111110100100111011111010111101001111101010100100
1111101000110000111110011011010011111011110000011111111100011100000000100101100000000011010001100000000000000101111111010000110111111011101000001111101101011001111110111001110111111010111101011111101101001111111110110100100111111011010011001111101011110011
