1111101111101010111110111000111111111011101100111111101111111111111110111111101011111011110101111111110001101001111111000111000011111011110000011111110010110111111111001010000111111011101011001111110000000000111111000101100111111100011110011111110000011101
1111101111101011111110111000011011111011110000111111101111111111111111000011111011111011110101111111110010001111111111000111101011111011111010011111110011011110111111001010010011111011111010111111101111101100111111000001010011111100011101101111110000101001
1111101111100111111110110111000011111011101101001111101111010100111110111111110111111011101001001111110010000010111111000100110111111011110000101111110010011011111111000111101111111011100010001111101111101010111110111100001011111100010010001111110000000011
1111100111010101111110010110001011111001001110001111100100111001111110000011110111111010001011001111101010010111111110010000010011111000110000011111100011001010111110011100111011111000111101011111100100011011111110010010000111111001011110101111100110001100
1111101111100110111110111010111011111011110000111111110000000000111111000011111011111011110101101111110010001111111111000111001011111011111011001111110011100001111111001010001111111011111001111111101111101011111111000001001111111100011110111111110000100111
1111101111101000111110111010111011111011110000001111110000000000111111000011111011111011110101101111110010001111111111000111011011111011111010111111110011100000111111001010010011111011110000111111101111101100111111000001010011111100011110111111110000101000
1110110110010011111011011100101011101101111101001110110111111101111011000001001111101111011110001110110110110101111010100010101011101101110011001110110000011111111011010001001111101100111101011110110110011101111011100010111111101011110011101110110010001100
1111101111101011111110111010111111111011110000111111110000000000111111000011111011111011110101111111110010010000111111000111101111111011111011001111110011100001111111001010010011111011111001001111101111101100111111000001010111111100011110111111110000101001
1111101111101000111110111010111011111011110000101111101111110111111111000010010011111011110101101111110010000111111111000110011111111011111011001111110010111000111111001010001011111011110100001111101111100010111111000001000011111100011001011111110000100110
1111101111000010111110111010110111111011110000011111101111011000111111000011110111111011100001101111110000010100111111000101000111111011111010101111110011001110111111000110100111111011111000011111101111100111111111000001001011111100010100101111110000011000
1111101100011101111110110011101111111011000101011111101101101011111110100111000111111011010101101111101101101101111110110101110011111011010010101111110000000000111110111001110111111011001001111111101110000001111110101111111011111100000010111111101101101011
1111100011100001111110001111011111111000110111001111101000100100111110001011001111111001001001011111100111010000111110001101010111111000101110011111100101111010111110011110010111111001011000011111100010011010111110001011111011111000111001001111100010000010
1111101111101010111110111010111111111011110000111111110000000000111111000011111011111011110101101111110010001111111111000111000011111011111011001111110011100001111111001010010011111011110101101111101111101100111111000001010111111100011110111111110000101001
1111101111100011111110111010111011111011110000101111101111111101111111000011111011111011110010111111110010001101111111000101101111111011111010001111110011011100111111001010001111111011111000101111101111101010111111000001000111111100011110111111110000100111
1111101111101010111110111010110111111011110000101111110000000000111111000011111011111011110100101111110010001011111111000110000111111011111010111111110011100001111111001001111011111011111010001111101111101011111111000000010111111100011110101111110000100111
1111100000111001111110000111001111111001010101011111100000100111111110000001000011110111101111011111100100101010111110010010010011111000111101011111100001001100111110011100001111111000111100101111100001101101111110001000011111111001010100001111100011010100
1111110001110101111111000111011111111011110010111111101111110100111111000001010111111011100011111111101100110010111111000001010011111011110000011111101111101100111111000010011011111100000101111111101111101000111110111010110011111011011011111111110000000000
1111110010010000111111000111101111111011110101111111110000000000111111000001010111111011101011101111101101011100111111000001010111111011110100111111110000010101111111000010100111111100001010011111101111101011111110111101011111111011011100001111101111111001
1111101111011000111111000100000111111011110101101111101111110110111110111110100111111011100000101111101101011011111111000000101011111011100111101111101111110101111111000001011011111100001001011111101111100101111110111010110111111011011100001111101110110101
1111101001010000111110010000011011111000111110101111101000110010111110100000100011111000110000011111100011010001111110011111001011111001001101001111100110100010111110000110100111111001011100101111100101000111111110011010010111111000111100001111100100010110
1111110010001111111111000111011111111011110101111111110000000000111111000001010011111011101011101111101101010000111111000011001111111011111011001111110000010101111111000010100111111100001010011111101111101100111110111101011111111011011100011111110000000000
1111110010001111111111000111100011111011110101111111110000000000111111000001010111111011101011101111101101011100111111000011110011111011111011001111110000010100111111000010100111111100001010011111101111101100111110111101011111111011011100011111101111111111
1110110010010110111011000111111111101110010110101110111010100000111011011011111011101110101111111110111011010010111011000110111111101101011100001110110100001101111011000101100011101100111010001110110111000010111011011011011011101101100010001110110011010111
1111110010010000111111000111101111111011110110001111110000000000111111000001010111111011101011111111101101011101111111000011111011111011111011001111110000010101111111000010100111111100001010011111101111101100111110111101100011111011011100011111110000000000
1111110010001000111111000110001011111011110101111111101111101001111111000001010011111011101011001111101101001011111111000011100111111011111011001111110000000111111111000010100111111100001010011111101111101100111110111101011111111011011100011111101111111111
1111110010001010111111000000110111111011101011111111101111011010111110111110110011111011100001011111101101001000111111000011110011111011111000011111101111101011111111000010100011111100001001111111101111101011111110111101011111111011011011111111101110010011
1111110000000010111111000000000111111011011010111111101110000001111110101111011111111011001011111111101100000011111110111100010111111011000101011111101100010110111110111010101111111011110110101111101110011110111110110111001111111010100110001111101101110111
1111100011101010111110000110110111111001111010101111100110010001111110011000001011111000111111001111100001000111111110000101111111111001010011101111100111100011111110010110010011111000110010111111100100101011111110010000110011110111111011101111100110001011
1111110010001111111111000111011111111011110101111111110000000000111111000001010111111011101011101111101101011100111111000011111011111011111011001111110000010101111111000010100111111100001010011111101111101100111110111101011111111011011100011111110000000000
1111110010001111111111000110100011111011110101001111101111111100111111000001010111111011101011011111101101011011111111000011110111111011111010111111110000010101111111000010100011111100001010001111101111101100111110111101011111111011011100011111101111111100
1111110010001111111111000111010111111011110101101111110000000000111111000001010111111011101010001111101101011001111111000010110111111011111011001111110000010100111111000010100111111100001010011111101111101100111110111101011111111011011100011111101111111100
1111100101101101111110000010001111111000111010101111100010010001111110010101001111111000101101011111011111000011111110010011111011111000010111111111100101100110111110010011101111111000111101001111100011111101111110010001100011111000011011011111100011010001
1111101101110000111110111110101111111100011000001111101010100010111110111011100111111100000110101111101111111000111110110011111111111100000111011111110000110001111111000101111111111100110000011111110100000111111111000011100011111011010010111111101111111100
1111101101110001111110111110110011111100011001111111101010100100111110111101011011111100011001101111101111101100111110110110111111111100010010001111101110001001111111000000110011111100001010011111110001100110111110111100001111111011100001101111101111011010
1111101101101110111110111101100111111100001001011111101001110010111110110111110111111100001011001111101110000001111110101011111111111100000110111111110001000011111111000000000111111011110000001111110010100111111111000000111011111011001111111111110011011010
1111100101010101111110011100010011111001010110011111100100110110111110011101001111111010111011111111110010000001111111011000101011111101011001011111110110111111111111101110110111111110101110111111110111000100111111100100110111111100001001111111101111011100
1111101101110001111110111110110011111100011001101111101010100100111110111101011111111100011001011111101111101011111110110111000111111100011001111111101111000011111111000001110111111100001010111111110001100110111110111100001111111011101000011111101111111001
1111101101110000111110111110110011111100011001101111101010100001111110111101011111111100010111001111101111101100111110110111000111111100011001101111101111000011111111000101010011111100001011101111110001100101111110111100001111111011101011101111101111111101
1110111010010101111011100001110011101100110100011110111111001000111011101010010111101110111110101111000010100101111100011101000011110000010010101110111100100010111011110100101111110000101101101110111101001111111100100000100111110000011000011110111111000101
1111101101110001111110111110110011111100011001111111101010100100111110111101100011111100011001111111101111101100111110110111000111111100011001111111101110111111111111000101001111111100001010101111110001100110111110111100001111111011101011111111110000000000
1111101101110000111110111110110011111100011000111111101010100100111110111101011111111100010001001111101111101010111110110110111111111100010000111111101110110011111111000100110111111100000011101111110001100010111110111100000111111011101011101111101111011111
1111101101110000111110111011111011111100001111001111101001111011111110111101011111111100001101011111101111101010111110110011111111111100000101001111101110011000111111000000000011111011110000001111110001011110111110111011101011111011101011101111101111011110
1111101011000001111110111000111111111100000001001111101000111100111111010001010011111100111100011111111000101001111111111011000100000000011011010000000001110000000000001100110000000000001001001111111111100100111111100010011011111100110001111111110000101000
1111100101001011111110011111001011111001011010011111100010110101111110010100101111111001010000111111101011101010111111000111110111111011100100001111110000011000111111001101111111111011111001001111110001011111111111010000100111111010000001101111101010011000
1111101101110001111110111110110011111100011001111111101010100100111110111101100011111100011001101111101111101100111110110111000111111100011001111111101111000011111111000110001011111100010100001111110001101001111110111100001111111011101011101111101111110111
1111101101101100111110111110101111111100011000101111101010100100111110111101011111111100011001101111101111101100111110110111000111111100011001011111101111000010111111000100101011111100001010001111110001100010111110111100001111111011101011101111101111110011
1111101101110001111110111110110011111100011001011111101010100100111110111101011111111100011001011111101111101100111110110111000111111100011001101111101111000000111111000100101011111100001010001111110001100110111110111100001111111011100110111111101111110111
1111100011001111111110010110000111111000100010101111100100010110111110100100000111111010000111101111110010100011111111100100001011111101011010111111110000111011111111011101011011111010111110001111110100001010111110101000011111111001101100101111100010101111
1111110000100111111110110011101111111100100010011111101110000010111111000101011011111100000000001111110000100111111111000000000011111100000101011111101110011010111111000111011011111011011100011111110001111010111111000000011111111100001011101111110010101001
1111110000101001111110111000010111111100011100011111101101011100111111000110011111111100000000001111110000010111111111000000000011111100000101011111101110011010111111000111100011111011011100011111110001111011111110111111111111111100000000001111110001010010
1111110011011010111110111001011011111100011111011111101101100101111111000011001111111011111011111111110000111010111110111101011011111011111110111111101110011010111111000110011111111011010101111111110001111111111110111110100011111100000000111111110000110111
1111101101111000111110011111011111111000111101001111100101100110111110011111001011111001110000001111100100100101111110001110001011111010000001001111100000011111111110001010101111111001000111101111100111010110111110011011000011111001111110101111110010010001
1111110000000100111110111000010111111100100011111111101110000101111111000110010111111011111111001111110000111110111111000000000011111100000101011111101110011010111111000110001111111011011100011111110001111011111110111111110011111100000000001111110000101101
1111110000101001111110111000010111111100100011111111101110000101111111000110011111111011111111111111110000111110111111000000000011111100000000001111101110011010111111000110111011111011011100011111110001111011111111000000000011111100000000001111110001010010
1110111000010110111011011111000111101101000011111110110101110001111011000001110111101110011101111110110011001011111011011100110011101101000000001110111000011000111011010110101111101101001001111110111000011011111011101100011111101101000010111111000010011111
1111110000101001111110111000011011111100100100001111101110000110111111000110011111111100000000001111110000111110111111000000000011111100000101011111101110011010111111000111101011111011011100011111110001111011111111000000000011111100000000001111110001010010
1111110000010011111110111000001011111100100011111111101101111100111111000110000111111011111111111111110000111011111111000000000011111100000010001111101110011010111111000100011011111011011011101111110001001000111110111111101111111100000000001111110000111110
1111110000000000111110111000010111111100001011111111101101011100111111000011000111111011111111011111110000111110111110111101100011111011110101111111101101110000111111000110110011111011000111011111110001111010111110111101110111111011110100111111110001010010
1111101110100110111110111011001011111011001010101111101011011101111110111001010011111010111001001111101110111001111110110111110011111011011101011111101011110101111110110001001111111010101101101111101111110111111110101101100011111100001110101111111001110110
1111101001010111111110010100001111111001111110011111100000101111111110011011111111111001010000001111100100110000111110001101111111111001001011001111100101101110111110001011011111111001000101011111100110101110111110011100111111111001011111001111101011111000
1111110000101001111110111000011011111100100100001111101110000010111111000110011111111100000000001111110000111110111111000000000011111100000100001111101110011010111111000111010111111011011100011111110001111011111111000000000011111100000000001111110001010001
1111110000100111111110111000010111111100100011101111101110000000111111000110011011111100000000001111110000111110111111000000000011111100000011101111101110011001111111000110100111111011011100011111110001110111111110111111111111111100000000001111110001010001
1111110000100110111110111000010111111100100011111111101110000100111111000110011011111011111110101111110000111110111111000000000011111100000101001111101110011001111111000101110011111011011100011111110001111011111110111111111111111100000000001111110001010010
1111100010111001111110001000101111111000010010101111100100100010111110011100010111111001011111111111100101111100111110001010100011111000110001101111100011011000111110011001000011110111110000101111100111100011111110010111100111111001111011011111110001110000
1111110000101100111111001000000111111100111011101111110011000101111111011101000011111100010001001111110100100011111111001011111111111101110100101111110010111011111110111011001111111010100011111111101110101100111111000100001011111100001000011111110000111101
1111101111010100111110111110100111111100010100001111101110001100111110111100111011111011001001001111101111011100111110111110010111111011111110011111101111101010111111001000000011111011100010111111101111010111111111001001111011111100001011011111110000111101
1111101111101100111110110011100011111011001100101111101001101100111110100000100111111010111000101111110010101011111110111100111011110111110001001111100101110011111111000111000000000011000001100000010101001101000001000111010100000001011111101111111001001001
1111111100110011000000011111010100000101001111000000100010110111000010101011101000001001100110000000100110101010000010011101101100001000001000000000100111111011000010010110101000001000001001000000010101001111000000100101110111111111010100011111101101111010
1111110000010001111110111111001111111100011110101111101111010111111111000101001111111011001000101111110101110011111111100010111111111100011101111111110000010010111111000000001011111011001100111111110000101111111111001000001111111100010000101111110000111101
1111110000000000111110111110011111111100011000011111101111011010111111001001001111111011010110011111101111101011111111000101111011111011110001111111110000011010111111001001100111111011100100001111110000110101111111001010000111111100010100101111110000111001
1111001010111000111101010011110011110011110010111111010100011011111100001111101011110000001010011110111011010111111010100110111111101010100001111110101001011110111010101111010111101110010011101110111110111110111011110110111111110001010010111110111100011111
1111110000000001111110111110110011111100010100111111101110011010111111000011110111111011000001111111101111010110111111000110011011111011111000011111110000111100111111001110000011111011101001111111110000010101111111000111101111111100010100101111110000111110
1111110000000000111110111101100011111100010100011111101110010111111111000001000111111011011010001111110001100110111111001100100111111100011001111111110000010111111111000101110011111011100000111111110000000100111111000111101111111100010100101111110000111100
1111101111011000111110111100111011111100000000011111101100001100111111000000100011111011001101111111101111111111111111000111010011111011111010011111110000110110111111001011100111111011100000101111110000101110111111000110111011111100011110101111110000111101
0000000010010000000001000101100000001000011010000000100010100110000011000101110100001110100100000000110111011110000100011110100100001101110000110000001101111001111111000010111011111010000101001111101101000111111110101101101111111011110001011111101011001010
1111101110000101111111000011000011111110011001000000000110000100000000100011001100000011111100110000010000100110000000111110110000000000111001000000000111101000111111111100110100000000010100010000001100000101000000001100101111111101000111011111101010111000
1111101111101101111110111110000011111100011001111111101111010101111111000100111111111011001101001111101111110001111111001100001111111100000111101111110000011111111111000111101111111011100000111111110000010100111111000111101111111100010100101111110000111101
1111101111111111111110111110001111111100010110001111101111011001111111001001000111111011011001101111110000110000111111001011110011111100001110111111110001000001111111001110101011111011111001111111110000110100111111001010000111111100010011111111110000101110
1111110000000000111110111110100011111100010100101111101110010000111111000011001111111011000110101111101111010001111111000110100011111100000001001111110001000110111111001100011011111011100001011111110000010100111111000111101111111100010011111111110000111101
1111111011001111000000111100110100001000111110010000101101000100000010111111101000001010111000110000100000010010000001100100101100000001100111101111101100000011111101001010110011110101001111111111011011011001111101101000011011110111111010001111100011111010
1111101111101110111110111110111011111011111000101111110000100111111110110101100111111011011110011111101111101011111111000011110111111100010101111111101110101100111110111001101011111100100001011111110010010010111111000010111011111101100001011111111110110101
1111110000101001111111000000000011111011111111111111110000101001111110111000011011111011101011111111110000111101111111000110011111111100001011001111101110011010111110110100111011111011111011011111110000100111111110111111111011111100001100101111110000110111
1111110011011101111111000001011111111011111011111111101111000011111110110001011011111011101010011111101111100011111111000101100011111100010110001111101101110011111110110111100011111100001110101111101111010101111111000101100011111101111010101111110111010101
1111100111011110111110011001110011111001101111111111100100111101111110010000011111111010001010111111100110000111111110011010100011111001010010001111101001110011111110110011010100000000111100011111111101100100000000101100100100000100110110010000010010011111
1111110000101010111111000000000011111100000000001111110000101000111110111000010111111011101011101111110000111101111111000110011111111100010011101111101110011000111110110101000011111100011100001111110001011011111111010100011111111101000000011111110101000001
1111110000101001111110111111111111111100000000001111110000101001111110111000011011111011101011111111110000111110111111000110011111111100010100011111101101111000111110110100100011111100001010001111110000010100111111000001110011111100100001011111110010110100
1110111010001001111011101000000011101100111000111110110100010100111011100101100011101110000111001110110100010111111011000001001011101101010010001111000000001011111101000000101011110011111111001111010111100100111101101011011111110100111001111111001010111101
1111110000101001111111000000000011111100000000001111110000101001111110111000011011111011101011111111110000111110111111000110011111111100010100101111101110011010111110110100100011111100001010011111110000010101111111000010001111111100010101101111110000100010
1111110000100000111110111111110011111011111111111111110000001110111110111000010111111011101011101111110000111110111111000100110111111100010011011111101110011010111110110011011011111100001001011111101111101110111111000010000111111100010001101111110000011000
1111101111011011111110111100110011111011110110001111101111111101111110110101100011111011100001111111110000100101111111000101011111111100000100111111101101110001111110110100100111111100000011101111101111111011111111000010001111111100001110111111110000000010
1111101111110011111110111001001111111011011101001111101110001110111110110010101011111011010000101111101101011100111111000100001011111011010101101111101101100111111111000101101100000000000111110000001011111011000001110010010000001001100111100000101100001001
1111101000000010111110011110010111111001010010111111100011011101111110000010001011111001010110011111100100100011111110001000011111111001000010111111101000001011111111011000000011111111100011010000000100000100000000011010101000000100011011000000011001100100
1111110000101001111111000000000011111100000000001111110000101001111110111000010111111011101011111111110000111011111111000110011111111100010100101111101110011011111110110100100111111100001011011111110000011100111111000011100111111100101001111111110100100010
1111110000101001111110111111111111111100000000001111110000100110111110111000011011111011101011101111110000111110111111000110011111111100010100001111101110010001111110110100011111111100001010101111110000010110111111000001111111111100011000111111110001000111
1111110000101001111110111111111011111011111111111111110000101000111110111000010111111011101011101111110000111101111111000110011111111100010001101111101110011010111110110100011111111100001010001111110000100000111111000010101011111100011010011111110001001111
1111100010011111111110001110110111111001100001011111100100100100111110010011100111111001011101101111100101100100111110011000001111111000111110001111101000101000111111100110011100000100101000100000110000001010000011100010111100001111000001000001000000111111
0000001101111110000000101010100100000101000111010000011000101011000000010111100011111110010001111111110001011011111110101111110111111011100111111111101001100011111110101010101011111011111110101111110011011111111110110101010011111011111010111111101101011010
1111110001101010111111000100111011111011110100101111110011011010111111001111011111111011110010001111110001110000111111001010010011111100000110011111110001111001111111000001100011111100010001011111110011110101111110110111000111111011111010101111101110000110
1111111000000011111111101111101011111101101101101111101001000000111110001001100111111110101111010000010011001111000010111010011100001100010000010000100111110010000001100101000100000010001101011111111101100010111110111110011011111011111100111111101100111100
0000010101000111000001011100110000001000110000000000011101110101000010111100101000001011100000110000100000101110000000111011101000000000000101011111111110100011111111011000001011111011101001101111100110010111111110011110001111111001010110011111100111101010
1111110111100010000000000100110100000001000001010000000000110000111111011001110111111011100000011111101111000011111111000110011011111011101011001111101111001101111110111100000111111100011001101111110011110011111110110111000111111011111011001111101110000110
1111110011011010111111010000111111111100111001101111111001010010111111100011111111111110110010111111110101101101111111010011001011111011111101101111110000000010111110111100001011111100011000101111110011110011111110110111000111111011111011001111101110000101
1111000010100101111011101011010111101011100000011110100110111010111010000110101111101010000101111110101000100000111011001000011011110001010011011111000010000011111100100111111011110001001000011110111011110010111011101010000111101101111111111110110011100010
1111110010001111111111010001001111111100011010001111110011100000111111011000101111111101101111111111110010110110111111001011010011111011101100101111101111100110111110111110100111111100011001111111110011110110111110110111000111111011111010111111101110000101
1111110011100001111111100101100011111110011001101111110110101001111111001011010111111100100100001111101111100101111111000100001011111011100111011111101111010010111110111110011011111100011001101111110011110011111110110111000011111011111010111111101110000101
1111110000001001111110111011000111111100000101101111101111101110111111011100101111111100111000001111110010101100111111001010000011111100000111101111110001010110111111000011100111111100010001001111110010100111111110110011001011111011111010111111101110000110
0000101010110111000010101000011100001101101101000000100100010010111110011100000011110000000010011110111110100001111011101001001011110010101001001111011001000110111110001100100111111011110101101111110001110001111110110000010111111011010011111111101100010100
0000011000100101000001111110010100001010001000000000100010001010000010001000101000000111010011100000100001100011000010000011110100000101000001110000001010111011111111101110011011111101000110101111110000110000111110010011001011111001111110111111100001110111
1111110101001101111111011001101111111101101010111111111000110100111111100111101111111110001010001111110010010101111111000100101011111011011011001111101110101001111110111100001011111100011001101111110011110001111110110111000111111011111011001111101110000101
1111110101000101111111011001001111111101010010001111111010111110111111101110000011111110100111111111111011011100111111100101011011111100001010011111110000010000111110111110000011111100011001011111110011110001111110110111000111111011111010101111101110000110
1111110011001010111111100010111011111101011100111111110010101111111111001011011111111100111011111111110011101010111111010010100011111011100000101111101110101101111110111100001011111100011001101111110011110101111110110111000011111011111011001111101110000110
0000101000010110000001010111000000000100011001101111110010110011111101000101110111101111001110101110101100110010111011010111101011110001010111001111001010011001111101100000101011111000001000111111011110111000111110000111010011111000110011011111100101100000
1111101111101011111110111001100111111011100101001111110001111011111111001010000111111100101110011111110101001010111111100110110111111101101100011111111100100100000000001111000100000100110100000000010101010000000001100001000100000111010100010000100101001001
1111110000010101111110111001101011111011101011111111110001111011111111000011110111111100011101101111101110110111111111001010000111111011110110001111110001100110111111010000010011111100011111011111110010101111000000010110011000000010111110001111110110011010
1111101111100011111110110110111011111011101101101111110001100011111111000101001111111100100111101111101011100101111111000000000011111011101001011111101001110010111110011001010111111001011011001111111000011110111111011010100011111000110001011111101011110011
1111100101100110111110010011011011111000101011001111100111100010111110001101110011111010101010111111101111111011111111010001011111111100000111001111111001000000111111011111001111111111100001000000000010100010000000001000111000000011001100110000000101011000
1111110000010101111110111001101011111011101011011111110001111001111111001001000011111101100001111111110001110101111111101011000011111111000010010000000010011101000000110000011100000100100001100000010010011000000001011100010000000110010010101111110101010101
1111110000010101111110111001101011111011101011111111110001111011111111000110001111111100110011011111101111011100111111001100111111111100001000111111110011010110111111100000000011111101110100001111110011000111111110101101011100000001000000010000101000101001
1110110110000100111011011100111011101110001010111110110100101111111011110011000011110010101100101111010101001100111101001111011011111000000011111111101110100100111110010011111011111000011010111111100000101010111101100010101111110111001100011111010111000011
1111110000010101111110111001101011111011101011111111110001111011111111000110011111111100110011011111101111000011111111001001001011111011110001111111110000110111111111001000111011111100101010111111110000111100111111000111100011111110110010010000000111010100
1111110000010100111110111001101011111011101011111111110001110111111111000110011011111100101110001111101110110111111111001001100011111011101010111111110010000110111111111110100000000011001000000000010110101100000000111111111011111101001000111111100011011110
1111101111111100111110110110010011111011101011101111110001010000111111000110100011111100110011011111101110110101111111001011000011111011010101001111110001001100111111010100000111111100100110111111110011001000111111001111000011111011011101011111100011101011
1111101110000001111110110010100111111011010011101111101011001100111110111100110111111011111100001111110111000011000000010100001100000100111010100000011111010000000010001010111100000110100101010000100000001001000001111010111000000011100101001111101001011111
1111100101100001111110001011011011111000001101101111101001101000111111000010000100000000110111110000010001110001000001000010100100000100010101000000010011111110000010010001110100001100011001010000110110010000000011100001101100001100110111100000110100111010
1111110000010101111110111001101011111011101011111111110001111011111111000110010111111100110011111111101111010111111111001101011011111100000111101111110011010011111111000111111011111100010110001111110100001110111111110011111000000111100100010000100011001100
1111110000010100111110111001100111111011101011111111110001111010111111000110000011111100110011011111101111001100111111001100110011111011100101111111110000011011111111010011001011111110000101011111110111010000111111000010101011111100101100101111111010100100
1111110000010101111110111001101011111011101011101111110001111010111111000110001011111100110010111111101111000110111111001101000011111100000101001111110011111101000000000110101000000011101010010000011010101001000001011000111011111101001010101111011100010111
1111100101001010111110010011010111111000110111101111100100111001111110101111111000000010010111000000100011110100000011100111110100001110110011110001000101001101000011111100000000001100101010100000010100010011000000001110001011111011000100011111001110111000
0000101000011110000010011100110000001010100110000000010000100000111111101011101011111000011110101111100010000111111110110100001111111011100000101111101111100110111110111101000111111100010010001111101111001011111110110111101011111100001010001111101111010111
1111101101011010111110010000100011111010010011111111110000001000111111010000010011111101111100111111111100111101111111010011000011111100011111011111110000011011111111000010100111111100010100101111101111101100111110110101110111111100001010011111101111000011
1111111101111101000010101110111000010010100111000001010110101100000100101000001000001101111110010000110000010111000001010010110000000010000111011111110111001000111111000000101111111011110111011111101111000001111110110111110111111100010110101111101111001010
0000001001110001111111100100101111111100101100001111101011011011111111010001010111111101000011001111110110100101111111101100100011111010111010111111101010011111111101111111100111111010000000001111100110110110111110010101101011111000111011011111011111111010
1111010110110101111101111110100011111010011111001111110001001111111111000110011011111011100101101111101110001100111111000101011111111100001010001111110000100111111111000010100111111100010011111111101111101011111110110111100011111100001001111111101111000100
0000101100101011000001101111010000000010010010011111111000001000111110111010100011111011011011011111101101100100111111000011010011111100011001101111110000101001111111000010100111111100010100011111101111101011111110110111101111111100001100111111101111001011
1111010110000110111101011000001011110101101101101111001110110011111100111100101011110011000001011111001101001000111100001100111011110000011000101110111111110100111011011010101011101100010110111110110111010000111011011010000111101101101111111110111011001000
0000000111001111000000000100100111111101011110101111110011111101111111000111111111111011110100001111101111100111111111000110000111111100011001111111110000101001111111000010100111111100010100101111101111101100111110111000010111111100001010011111101111000011
1111100000011101111111000001110111111100111110001111110010000101111111001101011011111011111101101111110000110110111111001000010111111100001111111111110000101000111111000010100111111100010011011111101111101001111110111000010111111100001001001111101111000011
1111011000101011111110000001000111111011011001010000000001000111000000100110101100000011100111010000001010011010000000000000101111111100111110011111110000010101111111000010001011111100010100001111101111101100111110110101110011111100000011001111101110101001
1110101111010111111000111010110111100111010000101110011100110010111011000001110111101111100001001111100100100000111111011100100011111110000011011111110011010011111111000001101011111011001100001111101111000001111110101111111011111011110010001111101010011000
0000101011011110000010110001011100000111111110110000100111011000000010001011101000001001111011010000010111100100111111111101001011111111111001111111110000000011111110011100111111110111111001011111100011110100111110010011011011111001101101101111101001011100
0000011001110011000000011010110111111011000001011111100110100110111110110100000111111011100101011111101110101100111111000010111111111100011001101111110000101001111111000010100011111100010100101111101111101001111110111000001011111100001010001111101111000011
0000001111011011000001111111110000000110000011111111111111110010111111000001110111111011001110111111101110101101111111000101101011111100011001101111110000100111111111000010100111111100010011011111101111010100111110110111110011111100000111111111101111000011
1111101001100100111111001001010011111101100001101111110100001111111111000101110111111011010001101111101110000100111111000110010111111100001111111111110000101000111111000010100111111100010010011111101111101011111110110111000111111100001001011111101111000011
1110111001000011111010101100001011101010010110111110110000000110111011101000000111110000110011101111011001111001111101000111111111110111011100011111100001110111111110001000001011111001000010101111100010110001111101111011011111111000100101001111100110101100
1111110001001011111111001011011111111100000110111111100110000111111111011101111011111111010100100000001101000011000000100100110000000011100011000000010010011010000000101011111100000011000101010000101100110000000100001100001000001101000111010000001011100001
1111101101110001111111001011010111111101001100001111110010111100111111011111001011111110100001001111110111111011111111010000001011111101100110110000000100001010000001000000111100000000011110101111100110011001111101010000110111110100110000001111100110110001
1111101101001110111110101111010011111001100101111111011111011010111101001110000111110101100010011111011000000011111110101101010111111101100110001111101000101100111101110101011011110111011011001111111011110000000010111111000000010000111101000001000101111011
1111101001111010111110111111010111111010001100111111101101100000111110111100000011111011001011001111110111010011000000011010100011111101111011101111101000010101111110111000111011111010110001001111101011000111111101101011100011110100100111101111010010111001
1111101111001110111111100101010011111111101001011111111101011100111111110001000100000001001000010000001010101111000000111000001000000101110011000000011000001111000001000001011011111010000000011111000101000101111101010110000011111010110011011111110010111101
1111101101110100111111001100000111111100110111001111110001111010111111001111000011111100111100011111110011011011111110111110011111111010111001101111011110100010111111001111011100000111101000110000100101001000000001110111110000000100000000001111110011001001
1111001111010011111101001110101011110110011101011111100011110010111111000001001111111100111010011111110011000010111111010111111011111111011000001111110100001110111111101100011111111111110100000000000101101111111111111010111100000010101111110000001000000000
1111101101110001111111001101011111111100101111101111110000100100111111001101100011111100010101011111110001001111111110110100001011111010110011011111101011010100000000010010001100000100000010000000010110101001000000001111011011111110000000001111110010011111
1111101101110001111111001100111111111100111011101111110001011001111111001100101011111101000000101111110111001010000000100111011100000110100111100000010001010101111111100111110111110011100010101111011000111001111110100101111011111100101111001111110110010011
1111101110010000111111001110010111111100111100111111110011100010111111010011010111111100011000101111110001000000111111001000110111111100010111111111101011010011111110011010110111110100010001111111000110110001111100011001101111111001111010101111111100101010
1111101011101101111111010010100111111101110001000000000111001110000001000110011000000110000011110000010001000100000000110110101100000110001001110000010011100011111110101011001111100111111110011101111110100110110111010011111111011101011110001110000011010110
0000000010111110000001010101001100000110001011100000011101110110000010010111101000001100101011110001001100001101000100101100011000010101100010100001000000001010000100111100110000001111110111000001000100111010000100001010100100001100010101010000100111000000
1111101101110010111111001000100011111100100110111111101111100000111110111001000111111101010001011111111101001011111111011011101111111110110110100000000000011011000010000010001100001001010111000000010101010010000000001100110111111011011000101111011111110011
1111101101110001111111001001111111111100100111111111110000010001111111000111100111111011111000011111110001101010111111011011011011111101110001101111101011000111111101101001101111111011101001110000001011001010000010010001001000000100100111101111110000001111
1111101101110001111111001101100011111100111110001111110010111011111111010101100011111101111100111111111001001000000000111110010000001000001000110000011000101110111111000001100011110001100110111111011110010100111110110101000111111011111111101111110010001111
0000001010001101000011010000000100010000110010100001010100011111000100111000011000010010010110110000111010001101000001101111101000000000010110101111110001111111111110101111000111110101001101111110111101100111111011011010011011101101101101011110111011000000
1111011010000001111100010100001011110101110101111111100000110000111110101011100011111011110001101111101110111101111110110011111011111100000101001111110000111101111111000110000011111011111001101111110110001110111110111001010011111001111001011111101010000110
0000000011010111000001000101001100000000110011101111110011001110111110101100011111111011010011111111101110101110111110110101110011111100000100101111110000111101111111000110010111111011110111011111110100110001111111000101011011111110101011101111111101110010
0000110001010001000001101011000100000011110100100000001010101001000000010101000111111111010001101111110010100111111110110101110011111011111110111111110000010111111111000111001011111011110101011111100110011011111110000011111011110111000100011111010101011111
1111100110001100111110110110001011111111001100101111111111011001111111010100011011111011101101001111100110110101111110010100101111111001011011001111100100010111111110001101011111111001110011011111100111101101111110001100101011111010101011011111100010011100
1111110001010000111110111101101011111100101000011111110000100101111111001000111111111011111111111111101110101111111110110101110011111100000101011111110000111000111111000110011011111100001001101111110100100010111111001010110111111101010011000000000001111000
1111100011101110111110110111000111111011011011111111101111101000111111000111011011111011111111111111101110101111111110110101110011111100000101011111110000111110111111000110110111111011111000001111110100010010111110111001100111111100001101111111110010111111
1111111000010001111110001011110111110101100101111111000100001101111100000011001111110001010001001111000010111110111011101011101011101100000110111110110001010110111011011100000111110001000100111111000111010101111101111001001011111010100000001111110101010100
1111110001111100111111000110010011111100111110011111110001001101111111001010011011111100000000001111101110101111111110110101110111111100000101011111110000111110111111000110011111111011110101111111110100000111111110110111101111111011111100011111110000111110
1111110100010011111111000001001011111100110010011111110001111000111111001011010011111011111101101111101110011101111110110101110111111100000101001111110000111100111111000100101111111011110101001111110011110100111110110111010011111011111011001111110011011111
0000011001000111000001011110110100000011110001110000000011100101111111100011000011111011110110011111101111011000111110110011011111111011110101101111101111010110111111000100000011111011110111011111110011010011111110111100100011111100000000101111110100010011
1110000101011011111100001000001011111111010010110000001101011010000000111111001011111110110111111111101110001101111110110001011011111010110011111111101110100010111110111001011011111011101010011111101100011100111111000111011011111110011110000000001110101100
0000101010110011000001111011011100000011111001111111111101100001111111100001011011111100000000101111101010110001111110001110101011111001100100001111100100011101111110011000101111111100111000000000000001001000000000100111011000000011011000100000010100010101
1111101010010010111111000000001011111100001110011111110000111000111111000111011111111011111111111111101110101110111110110101110011111100000011011111110000111110111111000110011111111011110111111111110101000000111110110101000111111100000000001111101100011011
1111100110000001111110110010101011111011101100011111110000101100111111001010100111111011111111011111101110101111111110110101101011111100000101011111110000111101111111000110011111111011110111101111110100100100111110110100000011111011101111111111110001101010
1111101111101000111110110110011011111100011111001111110001011111111111001011010011111100000000001111101110101111111110110101110011111100000101001111110000111100111111000110011011111011110101111111110100000101111110110111001111111011101101111111110100001010
1110101111001010111011011101001111110000000011011111001100111111111101001011001011110101110001001111011111111001111110000101111011111000000101001111100011001101111110011110000011111110011000010000100001110110000100010001111000010110010110010001011001010011
1111111101100010000000000011001111111100101010101111111001001000111111000010100111110111001011001111010000110000111110100111010000000011101001110000110011110110000011011000101111111110001111101110110111010100111011010000001111110011000101011111100001101111
1111111100110010000000011011000100000001100011001111111111111100111111010010010000000011111100100000010000100000000000010100110011111000110101101111000101101100111100111010000011111000001110100000000010001111000000110111011111111110101110001111100111101111
1111010100001101111110000011000111111011100001010000000111110110000000001110001011111101011000011111010000111000111101101110000011111101110101000000010100101111000010101100011000001000110010010000001011001001111111010111111111111101100011001111101111000001
1111100011001111111110111100111111111010111110101111101101011101111110101101111011111011001000101111100001111110111110110101010111111100101001011111100100111011111110011100100011110110101110001111100000100111111110100011011111111011111100101111111001011011
1111111110000101000000000111110000000000111101100000001101101100000001101011111100000110100110110000010101000000111110001110101111110011010001101111010110011010111110111001000111111100101001101111101110100111111110111100011011111100100100011111101111111100
1111110001010110111111000000101011111100101111111111100111111110111110010011100111110110111010011111111001001100000001100110110000000100101011100000010101010100000000100110001111111100011101001111100110100110111110111100010011111011101110101111101101010010
1111110111110000000000000010101100000000010000100000001000111000000000100111100100000101111011000000100000010010000001111110110000001001010001110000100110100111000010001101101000001000100010110000001110101001000000000010111011111010000101001111010100001011
1111110000000001111111001101000111111101001011001111110011001011111111000010001111111011101001110000000000101000000001001011010000000010110011001111110111001101111110111101010011111100011001001111110010110000111111001110011011111100111011001111110001011010
1111101110110111111111010010010111111100110011110000000011111100000000111100110000000001101110001111110110101101111101011110111111110101011100111111100111111111111111100010101011111110000110001111110011011111111110111110100011111101000101111111110010011100
1111110001011010111111001010011111111011011110101111110010100010111110111000001111111100111111011111100011111000111101001101111111110001101000111111011000110111111111011110101100000011100110010000011111111000000001011010101000000010101000010000000011011010
0000001101000011000000100000110011111111001010111111111011101001000000110110101111111100101101111110111100000110111000100111011111011000010001011101100000110111110101101101001011010110100010101101110110010100111100110010101000000010111110100000100010100101
0000011000011001000011000111001000001111100100100001000100000011000011111100000100001101111000010000110111110100000011011101110000001001110111000000011100011000000000011101111011111110101011011111110010101001111110111011101011111000101110111111101011110011
1111110010010001111111010000000011111111101000111111111001000101111111000000111111111101111010100000010110010000000010001000010100000010111111111111111100110100111101111010100111111000101110001111101011011010111110111100110011111100001101001111101111001110
1111110010000001111110111101000111111011110010011111110000101010111110111111101011111010001101101111011101111110111111000101000000000100010101000000100000010110000000010110000011111001100101101111100000110110111111000100000111111100101110101111101111100101
1111110001111100111111000101101011111100110010000000001011111010000001101001010000000101011010001111101000011101111100000011101011110110010000101111100110001111111111000101111011111011100111101111101111011110111110111100101111111100011000111111110001000010
0001001101100011000011111010011100001001101011011111111100100111111110111100011111111101111111000000010000111000000000000110001111111000100101011111001000110100111011100110111111101010001000001110100010010101111010100010110111101011110110011110111011100111
1111100101011001111110101001011111111011110000011111101111100100111110111110100111111011111101101111101110011110111111000001101011111011010100101111110001110110111111001110001111111010011111111111110000101001111110111011110011111100110010001111100111001011
1111100110010010111110110010101011111011101001101111110000111110111110111110110011111011111011001111101101110001111111000001111011111100000101001111110111101011111111100100000011111111001000110000000000101001000000010000101000000001100101111111111000101111
1111110111110010111111110011100011111100111001111111110000010111111110111001110011111011111001011111101101010001111110111001111111111011000001111111100101010101111101101010001011110110010110011111011010110001111111110000100000000100010110000000011001011010
1111111001111010111110001000100111111001011100011111100101001111111110011110010011111001011100011111100010111010111101110010000111110110010001111111010101011010111101000000111111110110000111001111011100111010111110010111101111110111110111011111100110110001
1111101110110110111110111010100111111011111001011111110000111110111110111110101111111011111010101111101101110000111111000101111111111011111100001111111000100110111111011111000011111101000011111111111110101100111111101111000011111111010010110000000100010110
1111101110111001111111000000000111111011110000111111110000111110111110111110101111111100000000001111101101110100111111000000111111111100001111011111110011100010111111010011011011111101011101101111110000001010111111001000011011111010111101101111101000101100
1111000001010001111100001000101011110010010010011110110001111110111011011001011111101110000000001111000101011000111100011101111011110100000111011111011111010011111111010001111011111111011011010000000110010101000000110111110100000101110010000000011101111101
1111110000110010111111000011011111111011111001011111110000111110111110111110110011111011111011001111101101110001111111000000011011111100000010101111110010010110111111001010011111111101010011101111110010110010111111001000101011111101001101001111110011010001
1111110000001110111110111110100111111011111001001111110000111100111110111110110011111011111011001111101101110001111111000000001011111100000001011111110001101010111111001101101011111011110100011111101111000001111111000011011011111101110000011111111111100001
1111110001111101111110111101010111111011110101001111110000000100111110111011001111111011111010001111101101010100111111000000010111111100000010111111110100000000111111011000010111111101110001001111110111010101111110111001100111111001011000001111101110000001
0000100101101111000000010110011111111101001100001111110000100111111110110111110111111010110010011111101110101111111111000101111011111101011011101111111010100011000000001111000000000011001001100000000110000101111111111010110100000000000011100000000100001110
1111110000001001111111001001100011111010111101011111100110110010111110010011110111111000111111111111100000110111111110101001110111111101010001011111110011010111111111000100101111111001001010101111101000001010000000101110100000000100111010100000010001111001
1111101111110101111111000011010111111011111001001111110000111110111110111110110011111011111011001111101101110010111111000000101011111011100011101111110010000110111111001011110111111100110111001111111001000000111111100100111011111110101101001111111101001011
1111101111101011111111000000000011111011110000111111110000111110111110111110101011111011111001011111101101110001111111000000001011111011111011111111110000110110111111000110100111111100111111111111110011101000111111000111100111111100010110101111110100011011
1111101111101010111110111111001011111011110000101111110000111101111110111110101111111011111010011111101101110001111111000000100011111011110111111111110010010111111111001000111011111011110001111111110011000111111111000100101111111100100100110000000001001011
1111001011101110111101101011011111111000000011111111100010100101111110011011001011111001001110101111101100101110000000110101110100001101010011110001011001111010000110010011001000010010111100010001001100101000000010000001010111111101001110111111101001110101
1111011001010000111011100010110011101100111010101111000010111010111111010100111100001100010110110000101101110110111101100111110111101100010010001110110111101101111101010111001011111000110000001111100111110010111110101001111111111011000111111111101111000010
0000000001111011000000001110001000000000111111110000000011100011111110010010110111110101000000011111011001000110111111010110110100000011111000000000000110011101111110111111000011111000111100011111101000010010111110001101111011111011101111011111101111101001
0000010000111000111110001001101111110011110100101111100110001100000000001010011100000111100011010000010001010111111111101001001011111000100110101111100010001011111110011010010111111010111011011111111010010000111111110001111011111101010001011111101111101010
1111100100111110111110101100100111111110010000001111111101100001111110110001110111111000111110001111101000011001111110001111011111111001011001001111010110110100111110000111010011111001001000011111100011111000111101101110101111110111110000011111100010010000
0000001111011011000010010001010100000111101010111111111111010100111101010010101111110110011111011111101110011101111111000100001011111011011111001111110000010001111111010011010111111011110101101111110001000000111110101111011111111100010000001111101111101001
1111101001100011111110101011101100000000001100100000011100100000000000000110110000000011100101111111111001101111111110011100001111111010111111001111101111011101111111010001001111111011110000101111110000100011111110101101000111111100000111011111101111101011
0000100000100000000010110101001000001010101111000000111100010110000011110110101100001111010100000000111100101000000010111100001100001000111111100000011011100100000000100100010111111011000011111111010101100010111100100000001011110001011101101110111001110110
1111110010101000111110111111000011111111000100000000010001001110000000000101001111111100101110011111101011011011111111000111111111111100101001101111110010111001111111011100011111111100001011101111110001110011111110101110111111111100010000011111101111101100
0000001001001111000000011110000011111011010001001111010111100101111101001011010011111011101011101111111001111001111110110111101011111100110100001111110000011000111111010100111011111100010011111111110010010000111110110001000111111100001001101111101111101001
1111100111100101111101110110110111110110110110101111010101101111111101111010101011111101010111110000001010000101000000101100101000000001100010000000000010010000111111111010111011111100100101101111110001001101111110110000110011111100010000101111101111011111
0000001100010001111111010111011111101101101000001101110011100101110011110011100111001110000101101100111000011011110100011000011011100000100011011111010100111010000001111010011100001100111011100000101101101111000001101010100000000000001011101111101111010001
1111111011101101111111000010100011111101010101010000000010000000111110100101011111111000101111111111010011100111111101111011000111110001011100001111001001101010111100010101101011110101101000011111010010100000111110001111010111111001111101111111100111110111
1111101100110010111110101100011100000000010010110000011101111010000001010100110111111101011101011111011011010101111110011101110111111011000101011111101101101111111111001011110111111011101110101111110001000101111110101110111111111100010000001111101111101100
1111110100011001111110101011000011110110110111001111110101001011000000110110010100000101001100111111101100101101111101111001000111111010001000001111110000100111111111011101110011111100010010001111110000111110111110101100110011111100001000111111101111101011
0000010101001101000001111111101111111110011011011111010000001100111101001111101011111001011101111111101101100011111110111100011011111100001110111111101111011001111111001101110011111011101100111111110000100001111110101100110011111100001001111111101111101011
1111101101000111000000010010110000000100111010100000010100010110111111111110110011111000010100011110110100011100111010001011101011100101111001011110010100001101111010110100001111101110110011011111001001101001111101001110010111111000001000001111100001111110
1111101110100010111110111111100011111011101001111111110100000101111110101010111111111011100010101111101110011100111110101011010011111100010111111111111101100011111111011101111011111011011110101111010101110101111100001010001011110000111001111111000111000110
1111101110110111111111000110110011111011101100101111110110000100111111011001010011111110001100101111110101110101111111111110001111111111001000011111111111111001111111100110110000000000000010101111111100100000111111011001110100000000101101000000001001001010
1111101110101101111111000001101011111010111011011111110100010011111110010111010011111001011110101111100001000001111110010011011111111110000100101111111110100011000001001101101100000011101101111111110101001011111101000100111011110100001100001111110010101011
1111100110010001111110011111010111110111010111111111001111010011111100111010000011110011000101011111010010010010111101111011111111110111010111011111100101101100111110101101101011111010011111101111101011100001111111110111101011111111101000101111100100101001
1111101110101110111111000101001011111011011011111111110100000011111110111000000111111100111110011111110100001010111111101011111111111101100011011111110110100010111110110110111000000000000000100000010011101010000010100001000100001101001010100000000101101001
1111101110101110111111000101001111111011011100011111110100110010111110111101011011111100011110111111110100001010111111010001110011111101000011011111110101011010111111001111001011111100101000011111101111001011111110110010000100000000110101000000001001001100
1110110100011010111011010101101011110010110000001111000110101001111110001010100111111010000000110000000010001110000001001110111000000111100010100000011101110000000010011101111000001011101100110000101101000011000011100001000000001100001010110000110110111000
1111101110101110111111000101001011111011011100011111110100111001111110111011111011111100010100011111110011001111111111010011111011111101001110111111110101001101111111100011010011111101001001011111101101001100111110100100110011111110011111110000001100101110
1111101110100010111111000101000011111011011011111111110100111101111110111001100011111100000111011111110001101111111111010100100111111100010001011111110111001101111111011101010011111111100001100000000010000100000000011100001111111111000000001111011011001010
1111101101011001111111000100010011111011010010001111110100110110111110111100001111111100010110011111110110010000111111010111010111111101111001111111101001010110111110010101101011111000111111111111011011110100111101101110101111110100011101001111001011010110
1111101010100111111110111110100111111101001110101111111010101100000000000010101111111110110001000000000011110110000000001100000000000010101100101111111100001111111111010110011000000010100010100000010111011110000000000010000011101111010000111110000000000010
1111100100010001111101111011111011111000000101011111100100101010111110011111111111111000010001001111001011101000111100001110110111110011011101111111100111010111111111010111001011111001101010111111010100010000111100100010010011110011111001101111001011010100
1111101110101110111111000101001011111011011100011111110100010111111110111001100011111100001000001111110110001111111111101001111111111111110110100000000001101111000000000001010011111111110010001111101100010010111110110011110000000000110101110000011111101000
1111101110101110111111000101000111111011011100001111110100111111111110111011110111111100001001011111110010000011111111001101001011111101000111001111110110110001111111011001110111111101011111101111110100011101111110011001101011110111100110111111111000101010
1111101110101100111111000101001011111011011011111111110100101110111110111011101111111100010010001111110010110000111111000100111011111011100101011111101010111101111110100000010111111111111000000000010000101011000010000011101000000010001011001111010111100001
1111100000000000111110011111110011111110101100000000011000110000000011101011000000011000000101110001010100010100000100100110110100001000000111000000000000111111111101110111100011111000000100101111110011011110000000000011010000000011100001100000001111111010
0000000010101110000100001011100100001100110010101111010111011110111001110100010011101111001000111111011110010100111110010010101111111010110000001111101011000100111110110101011011111011111101001111110001100110111110111100000111111100011100101111110000000101
1111101111011110111101110110000111111100100110010000010001100011000001000000010011111110001001101111101100110100111101111001000111111000111001011111100111110101111110111100001111111100000101001111110001010100111110111011001011111100001111111111110000000100
0000011011110001000010001100101111111111100001101111100111110000111101011010001011110110001110101111101000100000111110110111011111111100110000001111111101110111111111000110101011111100000100001111110001011100111110111101000111111011101111101111101010100110
1111101110111010111110010101001111111000001011001111101000001001111101011001010111110011111101111111010000010011111101001010011111110101000000101111010111011101111110001111010011111001001101111111100111010011111110010101010111110110101100111111001101111101
1111001110101011111101100011011011111010000010111111101101110100111111000010001111111101001000101111110100100110111110111111111011111100010001111111110001110110111111000000000011111100000101011111110001111010111110111100001011111100000100101111101101101110
1111111110111000111111110001011111111100111100001111101001010000111110101101111111111100010100011111110010110001111111000010011011111011111110011111110001100100111110111111111111111100000011011111110001111011111110111100001111111100000101001111101101110001
0000111111001101000011101100000000001110111111100000111011001100000011000111111100001010010101100000011101101001111111111001101111111000000100011111001001001110111100100101111011101101011100011110110100010101111011101111111011110010111100011111011000000101
1111110111011111111110101001010011111011001111001111110100010011111111011000010111111101111101011111110111100111111111000101011111111100001111101111110001101101111111000000000011111100000101011111110001111011111110111100001111111100000101011111101101101111
1111011100000100111110110011011111111011110100011111101001000010111111001000000011111101111000011111110101101110111111000010100011111100001101011111110001110110111110111111010111111100000011101111110001010111111110111011011011111100000100101111101101001101
1111101101100100000000110101111000000010111100100000001010100101111111001000000011111011100010011111101010111000111110110100010111111100001001001111110001011010111110111111100011111100000101011111110001010001111110111010100011111011111001111111101101000100
1101001000101011110100001010001111011010000001101110001000010000111100001101111100000000111100000000110010011111000100001011011100001101110001010000100111111001000000000101010011111011111001101111101110001010111110110101101111111110001111111111111110100010
1111000110101011111100011011010111110100001000111111010111001111111100100001100011101111011000111111001000110000111100110110010111110111100010011111100110001110111110100001111011111001111001011111100001110001111101111010011111110101111001001111010010011110
0000011110010110111111000111010111110101101111001111101001010101111111000001110111111100011101101111110010110100111110111000001011111011111100101111110001000011111111000000000011111100000101001111110001111011111110111100001111111100000101011111101101011000
0000010001110001000000001011101111111001111001101111100000110111111110110011111011111100011101111111110101011010111111000100000011111100000110111111110001101100111110111111111011111100000001101111110001110111111110111100000111111100000101011111101101111011
1111011100101011111110101010111111111100010100111111110010101101111111001100111011111101100110001111110100000011111110111011110111111100001001011111110001101100111111000000000011111100000100111111110001111001111110111011110111111100000101001111101101001001
0000001000011000111111001110011111110101000100111110101100011000111001100000010111100110101010111110011111001110111100000111011111110011101011001111010110000111111101101100101111111000110101101111011110000001111110100001011011111110111011100000011000011101
1111110010100111111111001000001011111011100100101111100101011011111110110101011011111011101110111111110101000000111111000010011111111000100010111111010100111000111101101000101011111001010010000000011110100011000100100110100100001010110100101111000101110100
1111101111101100111111010001110011111100111001000000000000011010111111100000110111111101101011101111110101100011111110111101110111111011110000001111111000000101000001000000010000000000000100111111101100010111111110110010010100000011110000110000011110010000
1111101001000010111110010010111111111000111010111111101101010000000000000000111100000010011111110000010001011110000000101010101011111011000101001111011101111000111110101111101000000010100100100000100010001010000001000011011111111010100000111111001101010101
1111010111000001111101100000001011110101100110001111100111010111111110100101101111111001010100111111100110010011111110100101001111111100100110001111110001110000111101101010001111110011110010101111001101101101111101000000011111110101101110101111100001101010
1111101111010011111110111101001011111101000101001111111000101111111111010110011011111100100111101111101111111110111111110101100100000011111111000000101110110010000011010000010111111111110010001111001010001000111101001110011111111001110010101111101110101011
1111110000000110111110111101000011111011111101011111110100101101111111010100110111111100011011111111101110011111111111000100001011111011010100001111101110000100111111110011000100000000100001011111111011011000111111101101101111111100010000111111101100100110
1111100011010010111111110011101100000110001000010000101010110100000010100110010100001001000111110000101100001100000010111100010000001010111010100000101110110000000001100011111100001000101011010000100010111010000010100000010100001100000111010000110000101100
1111110000000011111110111000110011111011110100001111110100101101111111010101110011111101010100101111111001001110111111011110100011111100100010111111100101110011111111100100000000000011011101001111111001000011111110010010101011111100000010001111110100010001
1111110000000000111110111101011011111011100100101111110010011100111110110111100011111100010010101111110100101111111111110100000000000000011101100000001001110110000000110100110011111000000111101111011010101011111111011001010111111100101000101111101100111011
1111101111111110111111001000011011111101000100001111111000110111111111100101010011111011010100111111100001100101111110010111100111110111000110111111011010111111111101000001101011111001000101110000001001010101000001101100000111111111001100011111110101011011
0000001000111101000000110101011100000011011110010000001001101110111111011100011011111101110111100000000001011010000001011000110100000111001100000000001010100001111110100111111011110100011100111110101100001100111010011011110111110001011010111111100100101101
1111011001101111111100110100101011101101010010001110110110011110111101010101000111111110010111101111111100010111111110001100101111110011101011111111000001111010111100011001010011110010100111011111010010000001111101101010100011111011001001111111101111011101
1111110000011011111110111101101111111100010001111111111011001101000000000000000000000000010101011111111111000110111111110100010111111000111000001111100101100101000000110001000000001010100001110000011011000010111110110100100011110111000110001111101010100011
1111110000111101111110111101100011111100001001001111110011011011111111010000111111111101110001101111110010010110111111001110100111111011100101011111011111001001111110101011011000000001000010110000000111010000111110111101000011111000100000101111100111010000
1111101111011000111110111100010111111011111010011111110100001011111110111001101011111011011010101111101010000001111111100001010100000010111010110000101101001101000001000010011111110011110000011111010011011100111110110110011111111100101001011111110100001011
0000111001100110000100111000000000010000001101010000100010010111000000111110011011111011010111001111100011001011111111000100100111111111000010111111110001100100111111100000011100000000010100010000000000100101000000010010011011111100001100111110111111110000
1110010110010001111011100110110111110111101001001111100101010101111110110110100011111011010000101111110011010110111110111001100111111011110101101111110001010000111110111000110111111100000011001111101101001111111111011100101111111011110111011111011111100100
0000001011111001111111000101011111111001000100111111100011001010111110101010000111111011010001001111110010100100111110111000010111111011110101111111110001010010111111000110111011111011101111111111110001100100111111010010101111111101100111111111111011100100
1111011100001010111110010010110011111010100000001111101001111000111110111001000111111101010011111111110010001100111110111001000111111011110101001111110001100100111110111110010111111011110110101111101110010010111110100001110011111001110001111111110100010111
1111010011111110111100110101111011110010101000001111000100001011111100000110111011110110111000111111100111111111111110011111000111111010011001101111100110100110111101111010000011110101100001101111011001001100111110011011011011111100000000001111101011110000
1111110110100111111111001010111111111100011111011111101111111100111111000101110111111011111010101111110010111010111110111000100011111011110101111111110001001111111111000010000111111011111011101111110001001100111111010001100011111100101011001111110100001011
1111110000110111111111000010000111111100011010001111101111000111111111000110001111111100000101011111110010111000111110111000010011111011110101101111110001010010111111000010100111111011111010111111110001010010111111001001001111111011011001011111110000100100
0000101111101010000010111010100000001011010111000000001010110010111111000011100011110011111110011111000010000100111011100100010011101101010111111111000011101000111100100100011011110101101100101111101010101100000000101101000100001010011111110000111001100101
1111110101001111111111010011001111111100110101101111110001010110111111001010010111111100000100101111110010111001111110111000011011111011110101111111110001010010111111000010100111111011111011001111110001010100111111001010111011111011011111101111101111111101
1111110100000100111111010110000111111101000101001111110000100001111111000100101111111100000001011111110010100011111110111000010111111011110010001111110001000111111111000010100011111011111111101111110001110101111111001011011111111011010110101111101111110100
1111100111000110111110000100101111111010010010001111101011111000111110111111011111111011111110001111110001110010111110111000010111111011100001101111110000101111111110111010110111111100000000111111110001100001111111001000010011111100010110101111110100101110
0000010000100110000011100101101100010000111111110001001101110010000011110010000100001011101001100000000011101001111110111011110011111011111100111111110001100011111111110110110111111111001011010000000101100000000000010110110100000010101001100000000011011101
1111100011111111111100110010100011110000110010101111011000101110111110101100000011111101001110011111110010100111111110010000010011111001010000111111100111100000111101011110101111110101100100011111001000001100111011101110001111101010101010101110100111110010
1111110001000011111111000100011011111100110111001111101111011110111111001000101111111100000110001111110011000100111110111000010111111011110101111111110001010010111111000010010111111011111111011111110001111110111111001101110111111011101111001111110010111111
1111110010011011111111001000101011111100011000001111110000011111111111000111110011111011111111111111110010110100111110111000011011111011110101111111110001010010111111000010100111111100000000001111110010000010111111001100110111111011101110001111110001001110
1111110110001010111111001010011111111100001011001111101111110011111111000110011011111100000010011111110010111010111110111000010111111011110101111111110001010001111111000010100011111011111010111111110001000111111111001000011111111011001011001111110000000100
1110100101100100111010000001100011101010011101111111000100111100111100111110001111110110010000101111011011110100111110010000111011111000011111111111101101010101111111100110101100000010011111110000100100000000000011011000110000001001001111100000001000111011
1111011010010110111110101100011111111111101011101111111100111001111111001011001011111011000100101111110011010101111111011000011000001000110010100001000110010101000000111000000011101111001000001110011110011010111100100101000111111000110010001111100110110100
1111110111100101111111001111010111111011100010101111110000011000111110011100001011111110101001110000001011001001111111100111001111110111100001011111100101011010000010001000100000001000001110011111111110010100111110100001000111111000110001101111101010000101
1111111111100001000000100011001000000011110010010000000010101110111111001111110111111101001101000000001001101101000001011101111000000011001110001111101010100110111100010101001011110011010010001111101000100001000000000100110011111010001010111111011000100111
1111101001111100111110010100001011110111011010011111101001100110111110111010110011110110000111001110110000000101111010010010110111101110001011101111010001100110111101001110000011111100101100011111100010101010111110000010011011110100110010101111010000100101
1111111010010100111111001001111011111101001111101111101100110110000000101010100000001000111000000000101101111110111111001010001111110001000011011111010001011101111110011111101011111011110100101111110110010000111111001110001011111101001001101111110010101010
1111101111101110111111000101100011111100001101101111110010001000111110010000101111111010111100101111111000110110000000001111111100000000001100101111110110010001111110101010011111111011101001101111110011101000111111000011101011111100010110011111110010000100
0000101100010100000010001011001000000111001000000000011110100011000001111100001100000100110111010000011001001110000001001101001100000101000100100000100000000001000010010100001100001000010111010000011110010001000010011110000000001011101010100000010010010010
1111110011101101111111100110010011111111010001001111111001100111111110101011110011111000101000001111111111010100000001100110011011111110001001011111100111100010111111001111100011111101000001001111110110001010111111010001101011111101000000011111110010111110
1111110011000110111111001111110111111101001111001111110011100101111111100010001100000010000000000000001011111100111101111010100011111000010011101111101001100111111110111110001111111100100011001111110100100000111111010101111111111101010000011111110001010011
1111110101001001111110100001001111111001110001001111100000100100111110001010000111110101101011111111010100101001111111010110001000001010100101010000010000111011111110101000001011111010011101001111100110011010111110011000111011111011001001101111101110001111
1111111001010110000000000001010100000010100100000000010111000001000001101000100100000111100111010000101010100111000010111010001100000101001011110000000101010010000000001010100100001000011000100001000110010000000100010011001000001110000111000000110100111101
1111011110010111000001000011000000000010100010001111101001011111111101111101101011110100000101001111100011100110111110101110111011111110100100100000001100100000000000101111110100000100110010001111111110000001111101111101011011110101000110101111010101011100
1111110111011110000000000101001011111111001000011111110001011101111101110000010111111000101110110000000011100111000011001011010000000100001000101111100010010011111110000100001111111100010010111111110010011010111111001011101111111101000100011111110001100000
1111110011000000111111100011110111111110001100101111110110000101111110011011110111111010110110101111110111000110000000100010000111111101111011101111100011010111111110010101001011111100000110011111110110000010111111010111111011111101000001001111110011001110
1111110010100101111110110101000111111011011010101111101111001011000000010000001000001010000100100000010001101010111100010110001111110011001010111111101010111010111111010110111011111101100110111111110101011000111111000011111011111100011001011111110001110011
0000000000111001111111001010101111111110100101001111110110111100111110101101110111110111010111001111101010111100111111100001111100000000010010100000001001111010000000001001011111111000101110001110111111100111111011101010001111101110110011111111001001011011
1111101101101101111110110110101111111100101100101111101100011111111110111100001011111011011011001111101110100010111111001100101011111011110010001111101110001101111110111100000011111001000101101111101011011000111111100000111100000011000101000000010001110001
1111101010111111111110101110011011111100110100111111101100011111111110111100001111111011100100101111110000000010111111000000001111111010101111011111110001000110111111001011100011111110111011111111110111010011111111110001101011111100010010011111101110011110
1111101000111111111111000011010111111100110101001111101101000011111110111011111011111011001110111111101101100001111110111111100111111011110011101111110000100001111111010100110011111110100000011111111110010011000000111110100100000010000110100000000010110011
1111010100011111111110110010001011111010010111111111100011100001111110010010110111111001100100001111100000000011111110000100111111111100010100000000000010010110000000111000110111111110110011111111101000100111111110000111111011111000100111101111101010000000
1111101111001100111111000010001111111100110100001111101100100000111110111100000111111011100001001111101111101010111111001001100111111011101010011111101111111001111111000110000111111101100001001111110001000100111111001111100011111100110011101111100101010000
1111110001100100111111000001011111111100110111101111101100100101111110111100001111111011100001101111101111101100111111001011110011111011011100001111110000011010111111000010101111111100110111111111110100100000111111001010010011111100101010101111101110001110
1111110001011100111101000110001011110000101100001110111110110111111011100010100011101111011111111111001010010100111100110100000011111101000010110000011000111100000010100111001100001011101000110000100001111010000001110001001100000100100010010000010100111000
1111110001100111111111000000111011111100110011111111101100011111111110111100001111111011100001101111101111101100111111001011100011111011101000101111110001010111111111000011011011111100111110001111110110110010111111011110100111111110010110101111111000111101
1111110001000000111111000001100111111100101111111111101100011111111110111010010111111011011111011111101111011101111111001011111111111011101000101111110000001001111111000000101111111100101010011111110111001000111111011100111000000000100001001111100111100011
1111110010000110111110111110011011111100011101111111101100011111111110111011111011111011100001011111101110100000111111000110011011111011011011001111110000001101111111001001001111111100101000111111110000101011111110000001111111111000101111111111100100000000
0000101101011001000010000101001011111111010101111111101010111010111110110001100111111011101000001111110101110001111111110000001000000000110111111111111000110111000000001011111011111111110000010000000010011101000000011001110100000011000011010000001011100101
1111100111011101111111001110000111111011001010011111100111101011111110011000101011111000111011011111011110010001111101010010101111110000110100101110101011111111111001100011001011101001111011111111010001001011000000101110110000000100100111011111111010001000
1111110001110011111111000001001111111100110011001111101100011111111110111100001111111011100001011111101111101100111111001100000111111011100101101111110001100010111111000110111111111100101111011111111001101100111111111010100111111100111101111111101000100101
1111110010001001111111000011011011111100110000111111101100011111111110111100001111111011100001001111101111101011111111001100000011111011110000011111110001011000111111001001000111111100111101001111110111011000111111101010011111111110110101011111110010101100
1111110001100001111111000010010111111100110011001111101100011111111110111100001011111011100001011111101111101011111111001011011111111011100000111111110000001001111111000011000011111100011000001111110001111010111110110000101111111100001100101111100001011000
1111010100000000111101101101100011111001000010101111100010011001111110010101000011111011001000001111110001011010111111010100100100000011011010010000001011000001000000111100101000000001011011010000000010110101000000011000110100000001111111011111110010000000
1111111110000000000000010001101100000000000010010000001010110111000010000000110100001010000101001111111001101101111100100111101011101011101100011111000100001011111110010111110111111011010111011111101000000000111110101111010011111011011010111111110001100101
1111011101011001111110101000101000000000001110111111101100110011111101100100111100000000000001110000101101100111000001001010101111111000011000001111011011010010111110011100100111111011111011001111101010000111111110111001110011111011011100001111110010001111
0000000000100111111111111111001100000010000101110000000001101111111110001101111111110011000100101110110110001100111101011000111011111111101000101111111100110101111110101011011011110110111011101111100010011000111110111010101111111011010000001111110001101000
1111011101000001111011100010011111100110010111001110101000111111111101100011001111111101111111001111111101011000000001010001111000000010000100001111110000001001111110101010011111111011000111011111110010100110111110111011101111111001011001011111100010011000
0000001000000001000010001011100000001000000101101111101011010010111100100011110011110110100110011111110011011000111111100001111011111101100001011111110101100101111111000011111011111101000011111111101011011001111110111101010111111011011100111111110010001101
1111100000101101111110110011010111111101001000100000000111000010111111110101010111111101111100101111110011111010111111100000000111111100110001001111110010010101111111000000010011111101000100101111101011101111111110111011011011111011100001111111110010011110
0000001110101010000000011011000100000010011000010000001100001001000000110011101100001000001011110000011001000101000001111011001100000110111000010000101101110110000010001100100100000100111001011111111101011001111101010010110111110001001011001110110111101110
1111101001100111111110001001110100000000011100010000011000110001111111000010010011111001111101011111101111001101111111100000000011111100111111111111110101000101111111001000111111111101001100111111101011100010111110111011000011111011011100101111110010010000
1111101100010111111111101011000000000101100010101111101010101011111101100001011111111001011000111111101100011011111111000000011111111110001011011111110100000001111111000110110011111100111100111111101011000001111110111011110111111011011010111111110001100001
1111010110110001111100100100101011111001001111000000011010001100000011000001110111111101001010001111101001000010111110011011011111111010100011001111101010010001111110100110010011111100011101011111101011100001111110111001101011111011010000011111110001000001
0000011001010010000010010101110100001111011001110000110101110000000010100101011100000100111100000000000111100011000001111000100100001100010000110000101010100110000010011001000100001100110101110000100001000000000000011011110111111100101101111111110001010010
1111101111000100111111010110101000000001011100100000001110111010000001110001101100001010100000110000101000000110000010010101101011111111000100001111011001111110111100011110101011110011111000001111011110111000111111000001001111111010011111011111100111010111
1111011100110011111101111110010000000001101011000000100101010010000000000111101111110111001011111111101001011110111111011010111011111101001011011111110100000010111111000011011111111100110011001111101011010110111110111011000011111011011100001111110010001111
1111100111101010111110111001011111111110001111010000001100000100111110101010001011111010010001111111101110010110111111011101111011111101001110101111110101110010111111000110001111111101010001001111101100001110111110111100111011111011011100011111110010001111
1111111101010001000001100111001100000100110011001111010000111110111100100101111011111010101100011111110101001100111111100010100011111100110101001111110010110000111110111111011011111100111110011111101011100001111110111011111111111011011101001111110010011011
1111100010101100111101110101111111111101101100000000000101010110000000010010100100000110110101000000001001110110111111010010111011111001011010101111011101011101111101011101100111110101010000101111010110100010111110001111011111111000111111111111100001110110
1111110000101001111111000011101111111100011111011111101101010101111110110000111111111100001001011111101101000100111110111111011100000001000010110000010001001100000001100000110100000101111111000000001011010001000000011000111100000000111110001111111101101011
1111110001010010111111001000111111111100010011011111101111001000111110111100011111111100000110111111111100101100111111100100010000000000111011100000001100011001000000000001111111111010101100011111101010010100111110110101111011111110110000001111100110101010
1111110000010100111111000110001011111100001100001111101011100010111110101101011111111011100000011111111001101101111111101001001011111101110001111111111010000001000000001100100000000011001101001111111111110101100000000000000011111100001100011111100010001000
1111100100100001111110100101011111111000111010001111101110010011000000100001001000000101111101000000011000000001000000101110010111111001101001111111100011010100111110010101000011111010011010101111010001110100111010111110001111101100100000101111101100110111
1111110001010010111111001010010011111100001111011111101110000011111110111001101011111011100000001111110100110110111111001111011011111011010011111111101100010011111110001100000111111001100111001111111111011100000001111100100000000111101100011111101000100000
1111110001010010111111001010001011111100001110101111101110000111111110111010111011111011101101001111110001110100111111001101110011111100111010011111110110111110111111010011100111111011000111001111011000000111111110101110111111111110010000000000000000100011
1110101110010100111011100000101111110001000110101111010101001101111111001001011100001000000110010000101010011011000010001000011000000011101001010000010001011111000000010000100000000100010111010000001111111001000001000011000100000110101010000000010111010010
1111110001010010111111001010010011111100001111101111101110000110111110111010000111111011101111101111110100000000111111010000000011111101001100011111111010001011111111100011101011111110010010001111101010100000111110001100110000000100101110000000001101001101
1111110001010001111111001001110111111100001111001111101110000010111110111001101011111011101011101111110011100100111111000110110111111110100100011111111110010010111111100011101011110111100011011111100010101100111111101110111100000101011011111111111001001111
1111101111011110111111001001001111111100000101011111101101110101111110110100111011111011010101101111110001110111111111000001100011111010000100011111101011100100111110101111010011110111110110101111010010111000111110000000101100000001111011110001000010101110
1111101011101001111111000011011011111100111001111111111101011101000000001001011111111110100011001111110100011001000000010100010000000100101100000000001100000101000001011111010100000101010010100000001011101100000001000101000100000111110010100000100101101101
1111100110001100111110010011100111111001001001101111010111011000111100000100110111101000110010101110010101100111111001100101010011110011110111110000001011100100000001011000011000000011001111010000000110101110000001000111100000000101100110010000011110000111
1111110001010010111111001010010011111100001111101111101110000101111110111001010011111011100110101111110001101001111111000101000111111101100110011111111011110111111110110110011111111000101001011111010001001110111110000110100100000011011110100000010110110000
1111110001010010111111001010000111111100001100001111101101111001111110111010010111111011110000111111110100010001111111010100000111111110000011101111111001110000111111101010111011111100010000011111100011111111111111011010100100000001110011111111111011011010
1111110001010000111111001010001111111100001111011111101110000100111110111001101011111011101111001111110011000000111111001100111011111100000100101111101110000001111111000000101011110110100001001111110100110001000001110001001100000101111010011111100000011000
1111100001010101111110011101111111111011001001001111101010000101111111100000101011111100010110111111101010100000111111110010010000000100000010000000100101000101000001000110001011111111101101111111100001111111111111000011000100000001011010010000000100101010
0000010001111010000001101110100111111101110101111111011001101011111100011001111111110100110111011111100110010010111110111100101011111011111011111111110000000111111110111000001111111011010000001111101111001111111110111111101111111100110000101111101110011011
1111100010000110000001101101100100000111111011001111110000111000111100111000000011110110110000001111101111110101111111000010011111111100001110101111101111010011111110111101011111111011011011101111101111011101111111000001011111111101000010101111110000000000
1111011010010000111100001110110111110001110100101111111011001101000000010001001011111101101011011111100100110011111101111010011011111000111101001111101111011000111110110101101011111011100010001111101110101101111111000000110111111100011010001111101101110000
0000001011011010000001011111000000001010100110000000100110011110000001111100000000000010101001111111111001110110111111100001100000000000010000011111110011111111111110101110100111111001000111101111100011011110111110011011100111111001100000011111110100001010
1111010011101000111110101011001111111110100100001111111010001101111111101001111011111100101001111111110000100110111111000001010011111100001111101111110000011000111110111101101011111011011100001111101111011101111111000000111111111100101000001111110000000000
1111111000011010111111000000000111111100100111011111110100011110111111011011110011111100110001001111110010010000111111000101100111111100001010101111101111101110111110111101100011111011100000111111101111011100111111000001001011111100110010101111110000000010
0000100000100100000010001011011000000101101101000000011010010100000001010110100100000111101011100000100110100000000001010101111111111111000101111111010001101011111011101010101111101110001010111110110110110011111011010110110111101110100101111111010110000010
1111101110000000111110011111110011111101000001111111110111001001111111100111001011111101011000111111110011110100111111000110100111111100001010101111101111101110111110111101100011111011011100011111101111011101111111000001010111111100110011001111110000000000
1111011010011111111110011001110111111011100101101111110100111011111111101011111111111101010010011111110010100110111111000011100111111100000010111111101111111010111110111101101011111011100000111111101111010111111111000001010011111100101010101111101111111111
0000001101100101111110100001011011111100001010101111100101111001111110101001111111111011000001011111110011001011111111000101111011111100000011111111101110111001111110111100110111111011011100001111101110100010111110111100001111111100101110001111101111111000
0000001100000111111111011011011100000000010101010000010111010011000001100010111000001000011100000000100000111100000010011101100000000110000100110000000100011010111111001000101011111011000001111111101100101101111110110000011011111100110011111111111101011010
0000110100101101000010110111101100001011000010010000100010101110000000000110111011110101001010101111000000111011111011111001010111110011111011011111101010001101111110011011100111111000110101111111100101100101111110001101110011111000111100101111010110000010
1111110101001011111110001010110011111100011010111111110101100000111111011000101111111100111101011111110001110001111111000001011011111100001011001111101111110001111110111101100011111011011100011111101111011101111111000001001111111100110010011111110000000001
1111100011101001111110011011001111111100011001001111110110110101111111100010000011111101100000011111110011100110111111000111110111111100010000101111101111101110111110111101011111111011011100011111101111010111111111000000100111111100110001101111110000000000
1111010110111001111111000001011011111101001101111111110000001110111111011000111111111100100010011111110010101011111111000101001111111100001011101111101111111101111110111101101111111011100000111111101111010111111111000001000011111100110000101111110000000000
0000010011000000000001000110100000000011001001010000000100110000111111111010111111111111001010001111110001110111111110001110101111110111101111001111101001110111111110010111110111111001011100111111100101111000111110001010100011111001011011001111101010101010
1111101110111010111111010011110111111110111111011111111101100100000001000100001100000111001010110000001111101010000000100000001011111111011110101111111001000011111111001101111011111011100111000000001101111111000001001010010100000011011010001111101110000111
1111101110010101111111000110110011111011110010101111111100111001000001010100001000000101000010101111110101111110111110101001101111111000010100011111101010101110111110110111010111110110011100001111110001011010000010101100101000000010010111111111001100111100
1111101011111110111110110101011111111101100101111111111000000111111111100010111111111100111000110000000001010010000000010111100111111111011001011111101100000000111110001000111111111000000101001111001111100001111101000000000011111011001001010000001011000110
0000011010011111000011000010000000001010001010100000011111101010000000101100101000000000100111101111111000100011111111001001110111111001110000101111100010111101000000001011010100001100010100010000111100101110000011100100111000001111111000000000110111011010
1111110000001010111110110110110111111101010010101111110110000111111111000101110011111010001101101111100010101101111101110101110111111110110110010000011000011100000010011100100011111101110001001111101001001001111111010001011111111111101110101111111100100010
1111110001001111111110111001000011111101001010011111110100100000111111100010100111111101011100111111101110101101111101111011110011111001110010001111110101011100000000101011010000000000101101111111110111101100111110100010010111111100010010111111110111010000
1111110100011000000001101101000000001001101101110000011010111101000000100101010111111111111010000000000011110100000001100001010100000111010010100000100101010101000010011000100100001001011100000000101100101101000001111010011100000101100111100000001110000100
1111110000101000111110111100000011111101011001111111110111011100111111100010100011111110000111101111110100100000111111001000001111111000110001011111100010000110000010011100011100000010011011111111101011110110111110101110001011111100011011101111110111000000
1111110000100001111110111010111111111101010001001111110100010111111111010000111011111110001001111111101110100101111101101100010111110110011111011111111001001100000010010101110100000000010110101111100000010000111110011100011011111100111110011111110110001010
1111110000011010111110111001100111111011100100011111101010010001111110010001100011111010001110001111100001010110111101110110110011110111000110011111110111010110000010010000110000001011000111001111110000000011111110000010110011111010010010101111101000111000
1111111100111101111111001111100111111110010111110000000000000100000000100011000000000011011111100000010000000111000000010111111111111111000001001111111000101111111111011000000100000001000010001111110111000110111111001011000000000000000011111111111011101011
1110111000101111111001011110110011100000010111001110001001111010111100010110000011111111000010100000010111100111000010001010101100001010011111010000101111011010000010001101100100001001001101100000101001100110000011000000111000001100001111000000001110010111
1111110001000000111110110110011011111100101010001111110011011100111111110101110011111101111010001111101001100011111101110101010111111000000101101111101110001000000001100111011100000011101110001111111110101010111110110010111111111011101101011111110110110000
1111110001010000111110111101100111111101010100111111110101100110111111011100100011111110101110101111110111011111111110111110110011111100101010000000000001000101000001101110111111111001110100101111100011001000111110100000011111111100111010011111110101110100
1111110000100100111110111010000111111101000101001111110011101111111111001000010111111100100111101111101110100001111110000100110011111110010011000000011100011001000001110100010111111001001010111111011010100111111110010110001111111100000100001111110011010011
1111101000000010111101111010111011111000101000101111110011010101000000111011010100000111111111110000000110000000111110100111101111111010100111101111111011101011000000011011011111111111100000011111111101111000111111011001011111111110001101001111111100011111
1111011111010100111101111011010011111010101001101111101101011011111110111111100111111101000010011111101101101101111110111110100111111011011001011111110010101111111111000000101011111011000110011111110100100001111111111110000100000010010010010000000000000000
1111000010000100111110100101000011111100000101001111110011110011111110111111111111111100100111001111101101100100111110111110101011111011100001011111110011010000111111000000111111111011101011011111110011010011111111001000000111111100111010111111111111010011
0000010000110110111111010011001111110110010100101111011010111001111110001010101011111100100111011111101101010011111111000001010011111011100010111111110010001001111111000001001011111011100011001111101011101011111110110110110011111110000101011111110011101100
