1100110111101111111100011100010000001100110111000001010000001110111111111110111011001101001111100001001101101111000000101010010111011110110110001100111000001001111100010001111011110111101110101111001010110110111101001111110111111100000100101111110111010111
0000001101010110110100101010111011101101111001101110110000000010110110100010110100000110111101100001000010010101000000100000010000100000100010110000101101001111001001001010001011101100111010011100100000001001000010010011011100000110101010100000011000010100
1101000100011001111011100010110011100010110010110000000101010101000010011100011011110111011100000000011000100001000001001011100100101110101100001101111100101100110011110111011011110100011110010000000100001010000011100101010000011010001110101111101100010100
1111000001001111110110101111101100010111011110010000001101010100000101011110000111111001001101001101110011110010000101010001100111010111000111001110101010000001111101100010010000000001000100111111100110100010111000100110010100001110001000010000001000101100
0001011010111011111010011001000111100101010101001111010100110011110111010110000000000111100111111110010111101000000011010111010111011011001010110001011100001000010011001010111100000101111010011111011110000100000011100011101011110101101110110000011001000000
0001000000001001110111111011011100000100101010010000010100001010111010101100111100110101110010001100000110000011110000101001110000000111010100101110100001001110111100001000111011100010111010011110111111001101111101110101100111111101000100100000001101111110
1101111100000111111010111100000111111101000011000000010110100101000001011010001100010110100000000000110101100110111110011110011111111011010100011110100101110001000010000110000000011000111000110000001111100100111100010010111111101111001100001111101111000010
0001001011100000110100011111100111101110000001000001000110110011111111110000010000000101000000110010001010100011111101010100000011110010100000000010000111010000111011111101101100000110100110101111011010010000000111101001001000001000100000000000111111010011
1110000011011110001000101100001011110001100011101111001010001110000010011010111011110011001011111100111101101000000001110011011111101101000101111100100000000010111000001001101000011010000011000001101101001000110110110100001111101111000011000000000100000011
0000100001010011111001100110011011111010001100111111110011011000111111110010100111101011100111101100101111000110000100000110110011110100100100110001100100101110101111000011001011101111010011010000101100011101000010110000010111110001001110100000010110011101
0000000000000001000000000000000100000000000000010000000000000001000000000000000100000000000000010000000000000001000000000000000100000000000000010000000000000001000000000000000100000000000000010000000000000001000000000000000100000000000000010000000000000001
0000000000000001000000000000000100000000000000010000000000000001000000000000000100000000000000010000000000000001000000000000000100000000000000010000000000000001000000000000000100000000000000010000000000000001000000000000000100000000000000010000000000000001
0000000000000001000000000000000100000000000000010000000000000001000000000000000100000000000000010000000000000001000000000000000100000000000000010000000000000001000000000000000100000000000000010000000000000001000000000000000100000000000000010000000000000001
0000000000000001000000000000000100000000000000010000000000000001000000000000000100000000000000010000000000000001000000000000000100000000000000010000000000000001000000000000000100000000000000010000000000000001000000000000000100000000000000010000000000000001
0000000000000001000000000000000100000000000000010000000000000001000000000000000100000000000000010000000000000001000000000000000100000000000000010000000000000001000000000000000100000000000000010000000000000001000000000000000100000000000000010000000000000001
0000000000000001000000000000000100000000000000010000000000000001000000000000000100000000000000010000000000000001000000000000000100000000000000010000000000000001000000000000000100000000000000010000000000000001000000000000000100000000000000010000000000000001
0000011001000110111100000001011111111011011001110000010111110111111011100111011000001010110001100000011011001101110111111100000100001100111111010000101000111101111000010110101111100110100011110000100011111111000001101110101000101000001100111111101000111110
1111111100011111111001111001000011110011100010111110110011010111000010000100001100010110110001000000001011101101111101111010100011111010001100011111111101111011110101111110001100010111110010110000101010101110111001110001101111110011101100110000001001011000
1110101101001101000101101000000111111101101011111111011111100100000101100011011000000011110001101101111000101001111010011011101000001110110100011111110101010111110101000000000011011111000010001111000001010011111000101100110111001111101110101101000000010000
0000000000100101111111001110001000001001110110111100011110001100000100011101001111111000000001100000110000010011110110110001001000000100001011000000100000001100000001111101101100100001000000110011000001111010110100110111000100000100011011111111101000100100
1111010010111100000001011111110100000001101010000000110000110011000000011111111011110000110010001111111000010110000100001000001111001000011010111111000001111011111000101101011011111101010110010001101110100000001001000011101111100111111011110000011001001001
0000110001110001111111001110100100010111111000100000100110010001111010100000010100001001101011100001010101100110110111010010011111111101110100101111110010010101111111010010001100100000110101001100001100111000000011000110011100000110011110101111011011010010
1110110111101111111110010010010111101001111110010000011000011101111101011111001111111001000111001111101110001010111001010101101100001011110110000000110111100000111111111011011011000000011000100001010111010011000110010010010111100110110111010000100000101000
1111001000111010111011011101100000011010001011111101110110010110000111110000011011110011001111011111000010110010001001011010110111010011100111110000011110010010000110101001101011100001010001110000101011001111111101100100001000100111111101010001111110010001
1111011001100010000001010001100000000100001100111111101101100111000011110100100111110110100001010001001111000000110101110000100111100111000000011100001111110010111100100100100111000011111101001100100110010010111110001010010111110101110001100000110001100010
0001000100010111000011110000000111110000100011000000001011101000110000001011011111110001111101001110111000000011000001101100010111110000100100000000011000110010001000101101100100011100001101001101110000101000111101101001000111011110001010001111101001001000
0000000000000001000000000000000100000000000000010000000000000001000000000000000100000000000000010000000000000001000000000000000100000000000000010000000000000001000000000000000100000000000000010000000000000001000000000000000100000000000000010000000000000001
0000000000000001000000000000000100000000000000010000000000000001000000000000000100000000000000010000000000000001000000000000000100000000000000010000000000000001000000000000000100000000000000010000000000000001000000000000000100000000000000010000000000000001
0000000000000001000000000000000100000000000000010000000000000001000000000000000100000000000000010000000000000001000000000000000100000000000000010000000000000001000000000000000100000000000000010000000000000001000000000000000100000000000000010000000000000001
0000000000000001000000000000000100000000000000010000000000000001000000000000000100000000000000010000000000000001000000000000000100000000000000010000000000000001000000000000000100000000000000010000000000000001000000000000000100000000000000010000000000000001
0000000000000001000000000000000100000000000000010000000000000001000000000000000100000000000000010000000000000001000000000000000100000000000000010000000000000001000000000000000100000000000000010000000000000001000000000000000100000000000000010000000000000001
0000000000000001000000000000000100000000000000010000000000000001000000000000000100000000000000010000000000000001000000000000000100000000000000010000000000000001000000000000000100000000000000010000000000000001000000000000000100000000000000010000000000000001
0000111010111100110111101001000000010001001010101110001001100001000010010001001100001011101110001111010101101000110101001010000011100101110110011111001110011110111100000100111000000011000010010000011100111011000000011000111100000111111100010000100001011010
1111101001011010000100100000000111101011111111111111010000011011111111111000100100011011000100000000001101000011000010011000001111111000101010110000100111110000001000011010111000010001111001101111010110111110000100011001001000000000101001101110101000011000
1100100010111001111111011110011100011001001101111111110000110101111110101101000011111000000001111111100010010111001011101110000011100111011001010001001010100101101111000001110100001110011000100000110010110101111101010101010100001010111010101111110000001101
0000110000011000001010010110010111010110101111101111101110101110110111110101111100000010011001101111000101110010001011100000111100000111111001111111111110001000000100010111011100000000000011101101110000001111110110111101011011011100101001000010010000101111
1111010110011011111100011101010111110111100111111100111001011011110111110010010111111111010010010000011100010101110100001111010111110111000111010000010000111011111110100110100011011110001000100000111000101110111100011011011111011100100011110000100101101011
0000011110111011000101010100110011110111111000011111110010110100111100001000100011111111000011010000010101010110111100010100100100000011110000110000000011111110111111110001001011110010110101010000111101101100000010101001110011100111111111100000011110101010
1111101010101100110011001111011111111000000101010010010110100101000011000111010011101011111110010010001011001010110100111010001011110111110101001111001010011001111101110100110000001100110111111111111010010101000011001111110000000101101010000000000000100011
0001100100010100000010101010100111110100001111111101111011110110000000101100101111111010101001010000000110101000001010011110100011110111000011000000010011010111111000000111111011110101101000000000010011011010110110101001110100101111110001110000000111001001
0001011110110000111000110001101111111000110010111110110001100001111111111100111111111010110000001111100011000011111000011111010100001000111100011111010000000100000100000111000000000001100111001111000101100011111111000011100011100011101111100000000110000010
0000110011000010111011101001011000010000100011001110011011011101000010010101110111111000111111100000101001110101101010100000111100001111100011001111100111111010000010000000110000101110000100011111101100011001000111001110110111000000100111001111110001111010
0000000000000001000000000000000100000000000000010000000000000001000000000000000100000000000000010000000000000001000000000000000100000000000000000000000000000000000000000000000000000000000000000000000000000001000000000000000100000000000000010000000000000001
0000000000000001000000000000000100000000000000010000000000000001000000000000000100000000000000010000000000000001000000000000000100000000000000010000000000000001000000000000000100000000000000010000000000000001000000000000000100000000000000010000000000000001
0000000000000001000000000000000100000000000000010000000000000001000000000000000100000000000000010000000000000001000000000000000100000000000000010000000000000001000000000000000100000000000000010000000000000001000000000000000100000000000000010000000000000001
0000000000000001000000000000000100000000000000010000000000000001000000000000000100000000000000010000000000000001000000000000000100000000000000010000000000000001000000000000000100000000000000010000000000000001000000000000000100000000000000010000000000000001
0000000000000001000000000000000100000000000000010000000000000001000000000000000100000000000000010000000000000001000000000000000100000000000000010000000000000001000000000000000100000000000000010000000000000001000000000000000100000000000000010000000000000001
0000000000000001000000000000000100000000000000010000000000000001000000000000000100000000000000010000000000000001000000000000000100000000000000010000000000000001000000000000000100000000000000010000000000000001000000000000000100000000000000010000000000000001
1101100001011001111101101100010111011011010111011111011101111010111111000101101111111010111110000000100111101001001010001011001011101101111110011111000111111010111011101010101100100000011100011110010101101001111011011001011111010010001000010000011011000110
0000101011100100111011000111111111110110110100101111111001110110111111111011001011111101000000100000100000101011111111011001001000010101011100111111011010001110000011100011110011111000001010000001001100001100111101110101000111110010000100001110010011001110
1111011101010001111110011101100111011111101111101101001000011111000101011001100100010101111011110000111000110100111111101111001100001101000100000000111111000110111011100110100100010101111110110000010110111000110110111100110000100010100001100001011011001111
0010111000101010111100010100000000011100010100010000111110100100000100101011011011100110001001001101111110010101111011101101100111100100100010011111110000010111111101010000011111110111000110001110110101101001000010001001011111001110001110011111100000111000
1100110111111010111111101101100000010011000100111111110101001001111100100111111100011100100011101111101011010001000100010101110000000111001110000000001110011100000101000101101011100100111010000000000101001101000010000000100111100110011011111100101001101000
1110111000100000000000100001010100101101001011100000101001010011110100111110000011101111000111011111100010111010111111100010100111011000011111000001001001001111000101011100111000010011001101010010100101110100111111000010100111100001110111010001010111101001
0010001001000010111111110100010111101101000000101111100011001001111110100101110111101100110110010001010111001010111011010110101111101110010011011111100010110100000011111010011011110011101010011111101010111000111000101010001011010110110111001101100000101010
0000111110010110000010010000111011101101101110101111001100100011111100010110111100010100101110111111010011100110000011100101001100000101111101011111000010010000000011000001101111100111100101000000100010011111001100111010110000010011010101110000011110010001
1101100001010100000011101110111000001011010100110000011010011100111101011100010011101010101110110000011000100011101101011110111000110010000011001111110010011011111101001101100111010111101101001111001000101000111110100111001000100100100000011110011101110001
0000010001011110111111000001111011011011100111000000000110110001000010011001111011110101001010100001000010000000000001011101010011111010111111101111010011111100111010001110001111110111111111001110110010101101001001000011111011000101110001110001011101001100
0000000000000001000000000000000100000000000000010000000000000001000000000000000100000000000000010000000000000001000000000000000100000000000000010000000000000001000000000000000100000000000000010000000000000001000000000000000100000000000000010000000000000001
0000000000000001000000000000000100000000000000010000000000000001000000000000000100000000000000010000000000000001000000000000000100000000000000010000000000000001000000000000000100000000000000010000000000000001000000000000000100000000000000010000000000000001
0000000000000001000000000000000100000000000000010000000000000001000000000000000100000000000000010000000000000001000000000000000100000000000000010000000000000001000000000000000100000000000000010000000000000001000000000000000100000000000000010000000000000001
0000000000000001000000000000000100000000000000010000000000000001000000000000000100000000000000010000000000000001000000000000000100000000000000010000000000000001000000000000000100000000000000010000000000000001000000000000000100000000000000010000000000000001
0000000000000001000000000000000100000000000000010000000000000001000000000000000100000000000000010000000000000001000000000000000100000000000000010000000000000001000000000000000100000000000000010000000000000001000000000000000100000000000000010000000000000001
0000000000000001000000000000000100000000000000010000000000000001000000000000000100000000000000010000000000000001000000000000000100000000000000010000000000000001000000000000000100000000000000010000000000000001000000000000000100000000000000010000000000000001
0001001101011110111110011110011000001001001001111111010001001100000010111000000000010000000110100001001000111000101101011001111100000001100011000000111110001011111100101110001000010000101100101101111101100001111010101010000011100001101101101111001010000100
0010000010110001000011111101000100001111011100110001010110110010000010110011111111110110100000110000110000000011000110100001100100001010010111001111111100101001000100101111010000000110110010010000111111010001000000101100010111110111011010110001001101100000
1110100011111110000010010011101000010101001100001110111101101001000001110010111111101011001101111111101011000011111001001100110111101110010001111111011100110000000000011100111000001101110010001100100110101101111001000101111011110111000100100000000010000001
1111101111001110001000111010011011100010101110011111110100110100000100111110110000010011000001100000011100110001000100111011001011011010011000101110011000111110111110101110000000000100001011001110101011101011111100100000101011100000111111001111100001111000
0000000100110010000011111010100011111010000011011111110000011101111111111111011111110000010011011110100100101010111011111110100100100000001011011110011001010111111111001110000111111011011111010010001110010111111000011001011100000101011010110000100101000101
0001000100111011111010101001010000000110100111011111110000001001111000101111011100001100100000010000001100011101001010100011010000010000000000101101111010100000111100110110011100011000110011111110000110100110001001101011100111100110111010010000010000010001
0010001001000111000000010101110111110000111100011111110010110010111010110000001000000001011000001111110111111110111000011111111100000011010011100001111011110000111111000001110111110000010111111110111100001001001010010100000111100000110111111101111001001000
1101110011111100000010000001101100001010001101110000010100101010111110001100101111111101111001011111101010010100110111111011100100000110010101011101100111001111111011000010101100000011111101000010101000110111111110010000001000001111010111000001010111011011
1111000011000010111111011001100111100100011001101111000010110000111101111111000011111010010011101110100010111011111000000100010111100110011111100000110100011100111011010110101011100110011110101100111000000110110101111100000111001101000111001110110110110001
1111001011011100110100101111100000010100101010111110110110010000000100100101000100001110010111100000001110001010000110110011010111100000001011110011001011001011000010100101001111111000101111110010010110101010110111110010110000010000000101110000010101101010
0000000000000000000000000000000000000000000000000000000000000000000000000000000000000000000000000000000000000000000000000000000000000000000000000000000000000000000000000000000100000000000000010000000000000001000000000000000100000000000000010000000000000001
0000000000000001000000000000000100000000000000010000000000000000000000000000000000000000000000000000000000000000000000000000000000000000000000000000000000000000000000000000000100000000000000000000000000000000000000000000000000000000000000010000000000000001
0000000000000001000000000000000100000000000000010000000000000001000000000000000100000000000000010000000000000001000000000000000100000000000000010000000000000001000000000000000100000000000000010000000000000001000000000000000100000000000000010000000000000001
0000000000000001000000000000000100000000000000010000000000000001000000000000000100000000000000010000000000000001000000000000000100000000000000010000000000000001000000000000000100000000000000010000000000000001000000000000000100000000000000010000000000000001
0000000000000001000000000000000100000000000000010000000000000001000000000000000100000000000000010000000000000001000000000000000100000000000000010000000000000001000000000000000100000000000000010000000000000001000000000000000100000000000000010000000000000001
0000000000000001000000000000000000000000000000000000000000000000000000000000000000000000000000000000000000000000000000000000000000000000000000000000000000000001000000000000000100000000000000010000000000000001000000000000000100000000000000010000000000000001
0000000001001100000000010001011100001101101100111110100111001110111111101001111100000111001110001111011011010111111100011111000011110110000010001111011011000101111010100001000000011010001001000000000011101110111011100100101111101110001011000001010101000110
0000010001110111111100100110101100010011101001001101110001000110000000010000100000000011001111101101100101000001000100110000110000110000001100010010000111100001000000101100011000011000101110000000111011011100111111101011101000010111110101011110101010101110
0000101101110101000000100100110011101100101011100000111110000101111011101111011100010111110111101101111110010111000100110011010011110111101000100000111100000101000010000100100011101101111010100001000000000000000000100000100011100011101110000001100000101011
1111011111011100000001011001011111110000100011111100110100000000101110011011101111011010011001011110010000000000111000001010010011011101111000111111011100111101000011110101110011100110011010000001010101001000111001110011010000001111011011010001001111110111
0000000011101000111110110000000011110110100111110001011111000111111110101010011100000100111101111110100110010101001001001101010111110110001011000000011001101101111000100111101000010100101101101111000100011011001111011011011000111110110001011101011100010101
1110100101101111001010111010100100001011100110101101110101011001001011011010101011011101100101111110011001111001111010010010011111110110100101101111001110010111111110100111001111011110001100111101100001001101111111100000000011010011010000101100000100000010
1111111000100110111110001000111100001101100100100000111001011111000100010111101000000100100001111101110100101110110111110111001111111101111100001110010100011010001001101100110100001111011110110000110111101101000001010110111000000101100010101101111101001110
1110110010001001111010011000001111111101100100111101110100010101111100111110000000001001100011111100011100011111000001001010100011110011111100010000110000110110000010001110111111111000010001001111110101010011110100110000001111011110110001111111000010110101
1111001110110111110110010000111011101011110110101110111101111110111100000010110100101100100100000000110010110001111110000000110000000110001001011101100000000100111011001000110111111000101000101110101101010110111011000000101111101001000011101111010000001010
1111011010100000001000001101101000001100000011100001011000110011111110010111000111010111100000111100110011000000111010101100011011110100100000010000100101110101000101001010000111110011010011100001100101110101101111011010110011000100101010110001100011001100
0000000000000001000000000000000100000000000000010000000000000001000000000000000100000000000000010000000000000001000000000000000100000000000000010000000000000001000000000000000100000000000000000000000000000000000000000000000000000000000000000000000000000000
0000000000000001000000000000000100000000000000010000000000000001000000000000000100000000000000010000000000000001000000000000000100000000000000010000000000000001000000000000000100000000000000010000000000000000000000000000000000000000000000000000000000000000
0000000000000001000000000000000100000000000000010000000000000001000000000000000100000000000000010000000000000001000000000000000100000000000000010000000000000001000000000000000100000000000000010000000000000001000000000000000100000000000000010000000000000001
0000000000000001000000000000000100000000000000010000000000000001000000000000000100000000000000010000000000000001000000000000000100000000000000010000000000000001000000000000000100000000000000010000000000000001000000000000000100000000000000010000000000000001
0000000000000001000000000000000100000000000000010000000000000001000000000000000100000000000000010000000000000001000000000000000100000000000000010000000000000001000000000000000100000000000000010000000000000001000000000000000100000000000000010000000000000001
0000000000000001000000000000000100000000000000010000000000000001000000000000000100000000000000010000000000000001000000000000000100000000000000010000000000000001000000000000000100000000000000000000000000000000000000000000000000000000000000000000000000000000
1110111110100001000000111110111100001010100111111111011011000111000000000000000000000000000000010000000000000001000000000000000100000000000000010000000000000001000000000000000100000000000000010000000000000001000000000000000100000000000000010000000000000001
1111101011011011111100001010111011101000010100000001000001001101000000000000000100000000000000010000000000000001000000000000000100000000000000010000000000000001000000000000000100000000000000010000000000000001000000000000000100000000000000010000000000000001
1111011110010010111100000010000111101001000111000001010000100010000000000000000100000000000000010000000000000000000000000000000000000000000000000000000000000000000000000000000000000000000000000000000000000001000000000000000100000000000000010000000000000001
1101010001000001111111101110110100000010010010010000000110101111000000000000000000000000000000000000000000000000000000000000000000000000000000000000000000000001000000000000000100000000000000010000000000000001000000000000000100000000000000010000000000000001
1111000110001100111101001111011000001100100110101111001000111111000000000000000100000000000000010000000000000001000000000000000100000000000000010000000000000001000000000000000100000000000000010000000000000001000000000000000100000000000000010000000000000001
0000011000101000000100011110101100000111010011011110101011110000000000000000000100000000000000010000000000000001000000000000000100000000000000010000000000000001000000000000000100000000000000010000000000000001000000000000000100000000000000010000000000000001
1101001010010001000001010000000011100110001111011111011110011010000000000000000100000000000000010000000000000001000000000000000100000000000000010000000000000001000000000000000100000000000000010000000000000001000000000000000100000000000000010000000000000001
1101110100010110110111000110001111101011111100011111111001001110000000000000000100000000000000010000000000000001000000000000000100000000000000010000000000000001000000000000000100000000000000010000000000000001000000000000000100000000000000010000000000000001
0011110001010010111101101111000011101011011101101100111011110110000000000000000100000000000000010000000000000001000000000000000100000000000000010000000000000001000000000000000100000000000000010000000000000001000000000000000100000000000000010000000000000001
0001100010110111000010000110000000001110001001110000011000101001000000000000000100000000000000010000000000000001000000000000000100000000000000010000000000000001000000000000000100000000000000010000000000000001000000000000000100000000000000010000000000000001
0000000000000000000000000000000000000000000000000000000000000000000000000000000100000000000000010000000000000001000000000000000100000000000000010000000000000001000000000000000100000000000000010000000000000001000000000000000100000000000000010000000000000001
0000000000000000000000000000000000000000000000000000000000000000000000000000000000000000000000000000000000000000000000000000000000000000000000000000000000000000000000000000000100000000000000010000000000000001000000000000000100000000000000010000000000000001
0000000000000001000000000000000100000000000000010000000000000001000000000000000100000000000000010000000000000001000000000000000100000000000000010000000000000001000000000000000100000000000000010000000000000001000000000000000100000000000000010000000000000001
0000000000000001000000000000000100000000000000010000000000000001000000000000000100000000000000010000000000000001000000000000000100000000000000010000000000000001000000000000000100000000000000010000000000000001000000000000000100000000000000010000000000000001
0000000000000001000000000000000100000000000000010000000000000001000000000000000100000000000000010000000000000001000000000000000100000000000000010000000000000001000000000000000100000000000000010000000000000001000000000000000100000000000000010000000000000001
0000000000000000000000000000000000000000000000000000000000000001000000000000000100000000000000010000000000000001000000000000000100000000000000010000000000000001000000000000000100000000000000010000000000000001000000000000000100000000000000010000000000000001
